
// We need to keep the data array aligned on some architectures.
#include "micro_model.h"

// memory management
#ifdef __has_attribute
#define HAVE_ATTRIBUTE(x) __has_attribute(x)
#else
#define HAVE_ATTRIBUTE(x) 0
#endif
#if HAVE_ATTRIBUTE(aligned) || (defined(__GNUC__) && !defined(__clang__))
#define DATA_ALIGN_ATTRIBUTE __attribute__((aligned(4)))
#else
#define DATA_ALIGN_ATTRIBUTE
#endif

const unsigned int micro_model_len = 11064;
const unsigned char micro_model[] DATA_ALIGN_ATTRIBUTE = {
  0x20, 0x00, 0x00, 0x00, 0x54, 0x46, 0x4c, 0x33, 0x00, 0x00, 0x00, 0x00,
  0x14, 0x00, 0x20, 0x00, 0x1c, 0x00, 0x18, 0x00, 0x14, 0x00, 0x10, 0x00,
  0x0c, 0x00, 0x00, 0x00, 0x08, 0x00, 0x04, 0x00, 0x14, 0x00, 0x00, 0x00,
  0x1c, 0x00, 0x00, 0x00, 0x80, 0x00, 0x00, 0x00, 0xd8, 0x00, 0x00, 0x00,
  0x04, 0x16, 0x00, 0x00, 0x14, 0x16, 0x00, 0x00, 0x60, 0x2a, 0x00, 0x00,
  0x03, 0x00, 0x00, 0x00, 0x01, 0x00, 0x00, 0x00, 0x04, 0x00, 0x00, 0x00,
  0xc2, 0xe8, 0xff, 0xff, 0x0c, 0x00, 0x00, 0x00, 0x1c, 0x00, 0x00, 0x00,
  0x38, 0x00, 0x00, 0x00, 0x0f, 0x00, 0x00, 0x00, 0x73, 0x65, 0x72, 0x76,
  0x69, 0x6e, 0x67, 0x5f, 0x64, 0x65, 0x66, 0x61, 0x75, 0x6c, 0x74, 0x00,
  0x01, 0x00, 0x00, 0x00, 0x04, 0x00, 0x00, 0x00, 0x9c, 0xff, 0xff, 0xff,
  0x17, 0x00, 0x00, 0x00, 0x04, 0x00, 0x00, 0x00, 0x07, 0x00, 0x00, 0x00,
  0x64, 0x65, 0x6e, 0x73, 0x65, 0x5f, 0x31, 0x00, 0x01, 0x00, 0x00, 0x00,
  0x04, 0x00, 0x00, 0x00, 0xa2, 0xe9, 0xff, 0xff, 0x04, 0x00, 0x00, 0x00,
  0x07, 0x00, 0x00, 0x00, 0x69, 0x6e, 0x70, 0x75, 0x74, 0x5f, 0x31, 0x00,
  0x02, 0x00, 0x00, 0x00, 0x34, 0x00, 0x00, 0x00, 0x04, 0x00, 0x00, 0x00,
  0xdc, 0xff, 0xff, 0xff, 0x1a, 0x00, 0x00, 0x00, 0x04, 0x00, 0x00, 0x00,
  0x13, 0x00, 0x00, 0x00, 0x43, 0x4f, 0x4e, 0x56, 0x45, 0x52, 0x53, 0x49,
  0x4f, 0x4e, 0x5f, 0x4d, 0x45, 0x54, 0x41, 0x44, 0x41, 0x54, 0x41, 0x00,
  0x08, 0x00, 0x0c, 0x00, 0x08, 0x00, 0x04, 0x00, 0x08, 0x00, 0x00, 0x00,
  0x19, 0x00, 0x00, 0x00, 0x04, 0x00, 0x00, 0x00, 0x13, 0x00, 0x00, 0x00,
  0x6d, 0x69, 0x6e, 0x5f, 0x72, 0x75, 0x6e, 0x74, 0x69, 0x6d, 0x65, 0x5f,
  0x76, 0x65, 0x72, 0x73, 0x69, 0x6f, 0x6e, 0x00, 0x1b, 0x00, 0x00, 0x00,
  0x28, 0x15, 0x00, 0x00, 0x20, 0x15, 0x00, 0x00, 0x08, 0x15, 0x00, 0x00,
  0xcc, 0x13, 0x00, 0x00, 0x8c, 0x13, 0x00, 0x00, 0x6c, 0x05, 0x00, 0x00,
  0x2c, 0x05, 0x00, 0x00, 0x4c, 0x02, 0x00, 0x00, 0x00, 0x02, 0x00, 0x00,
  0x68, 0x01, 0x00, 0x00, 0x34, 0x01, 0x00, 0x00, 0x08, 0x01, 0x00, 0x00,
  0xec, 0x00, 0x00, 0x00, 0xe4, 0x00, 0x00, 0x00, 0xdc, 0x00, 0x00, 0x00,
  0xd4, 0x00, 0x00, 0x00, 0xcc, 0x00, 0x00, 0x00, 0xc4, 0x00, 0x00, 0x00,
  0xbc, 0x00, 0x00, 0x00, 0xb4, 0x00, 0x00, 0x00, 0xac, 0x00, 0x00, 0x00,
  0xa4, 0x00, 0x00, 0x00, 0x9c, 0x00, 0x00, 0x00, 0x94, 0x00, 0x00, 0x00,
  0x8c, 0x00, 0x00, 0x00, 0x6c, 0x00, 0x00, 0x00, 0x04, 0x00, 0x00, 0x00,
  0x82, 0xea, 0xff, 0xff, 0x04, 0x00, 0x00, 0x00, 0x58, 0x00, 0x00, 0x00,
  0x0c, 0x00, 0x00, 0x00, 0x08, 0x00, 0x0e, 0x00, 0x08, 0x00, 0x04, 0x00,
  0x08, 0x00, 0x00, 0x00, 0x10, 0x00, 0x00, 0x00, 0x28, 0x00, 0x00, 0x00,
  0x00, 0x00, 0x06, 0x00, 0x08, 0x00, 0x04, 0x00, 0x06, 0x00, 0x00, 0x00,
  0x04, 0x00, 0x00, 0x00, 0x01, 0x00, 0x00, 0x00, 0xeb, 0x03, 0x00, 0x00,
  0x00, 0x00, 0x0a, 0x00, 0x10, 0x00, 0x0c, 0x00, 0x08, 0x00, 0x04, 0x00,
  0x0a, 0x00, 0x00, 0x00, 0x01, 0x00, 0x00, 0x00, 0x02, 0x00, 0x00, 0x00,
  0x04, 0x00, 0x00, 0x00, 0x05, 0x00, 0x00, 0x00, 0x32, 0x2e, 0x39, 0x2e,
  0x30, 0x00, 0x00, 0x00, 0xe6, 0xea, 0xff, 0xff, 0x04, 0x00, 0x00, 0x00,
  0x10, 0x00, 0x00, 0x00, 0x31, 0x2e, 0x31, 0x34, 0x2e, 0x30, 0x00, 0x00,
  0x00, 0x00, 0x00, 0x00, 0x00, 0x00, 0x00, 0x00, 0x98, 0xd7, 0xff, 0xff,
  0x9c, 0xd7, 0xff, 0xff, 0xa0, 0xd7, 0xff, 0xff, 0xa4, 0xd7, 0xff, 0xff,
  0xa8, 0xd7, 0xff, 0xff, 0xac, 0xd7, 0xff, 0xff, 0xb0, 0xd7, 0xff, 0xff,
  0xb4, 0xd7, 0xff, 0xff, 0xb8, 0xd7, 0xff, 0xff, 0xbc, 0xd7, 0xff, 0xff,
  0xc0, 0xd7, 0xff, 0xff, 0xc4, 0xd7, 0xff, 0xff, 0x32, 0xeb, 0xff, 0xff,
  0x04, 0x00, 0x00, 0x00, 0x0c, 0x00, 0x00, 0x00, 0x04, 0x00, 0x00, 0x00,
  0xe8, 0xfe, 0xff, 0xff, 0xf4, 0xff, 0xff, 0xff, 0x4a, 0xeb, 0xff, 0xff,
  0x04, 0x00, 0x00, 0x00, 0x1b, 0x00, 0x00, 0x00, 0x16, 0x07, 0x27, 0x32,
  0x1e, 0x0b, 0xef, 0xe1, 0x81, 0xe8, 0xc5, 0x0a, 0x31, 0xac, 0x0e, 0xaf,
  0xf0, 0x33, 0xd4, 0xe1, 0x27, 0x96, 0x1a, 0xf7, 0x46, 0x24, 0x1a, 0x00,
  0x72, 0xeb, 0xff, 0xff, 0x04, 0x00, 0x00, 0x00, 0x24, 0x00, 0x00, 0x00,
  0x4b, 0x00, 0x00, 0x00, 0xb7, 0x00, 0x00, 0x00, 0x9a, 0xfe, 0xff, 0xff,
  0x80, 0xff, 0xff, 0xff, 0xa7, 0x01, 0x00, 0x00, 0x5c, 0xff, 0xff, 0xff,
  0xb0, 0x02, 0x00, 0x00, 0x08, 0x00, 0x00, 0x00, 0x0d, 0x01, 0x00, 0x00,
  0xa2, 0xeb, 0xff, 0xff, 0x04, 0x00, 0x00, 0x00, 0x87, 0x00, 0x00, 0x00,
  0xe5, 0xe8, 0x36, 0x01, 0x19, 0x1d, 0xf7, 0xec, 0x37, 0x02, 0x3c, 0x36,
  0x00, 0x3b, 0x16, 0xff, 0xb6, 0xff, 0xe9, 0x40, 0x15, 0xc0, 0xc2, 0x0f,
  0x24, 0x30, 0x26, 0xe4, 0x38, 0x18, 0x12, 0xf3, 0x24, 0x20, 0xd6, 0x2b,
  0x03, 0x25, 0xf4, 0xfe, 0x24, 0x04, 0xdf, 0xfd, 0xda, 0xe9, 0xe0, 0x28,
  0xff, 0x55, 0x3c, 0xdc, 0xc4, 0x4c, 0xdc, 0x3e, 0x7f, 0x68, 0x12, 0x4a,
  0x41, 0xbc, 0x3b, 0x24, 0x35, 0x15, 0x39, 0x2c, 0xc5, 0xdb, 0xc5, 0xa7,
  0xc1, 0x3a, 0x0d, 0xd9, 0x2c, 0x14, 0x2a, 0x0b, 0x2b, 0x04, 0xe3, 0xd1,
  0x19, 0x15, 0xfc, 0xe5, 0xeb, 0xd0, 0x02, 0x17, 0x0a, 0x9d, 0x6c, 0xf5,
  0x26, 0x1f, 0xfd, 0xf3, 0xbf, 0xf2, 0xf4, 0xb8, 0xa6, 0xd5, 0x09, 0xd3,
  0xfc, 0xd7, 0x0c, 0x36, 0x08, 0xcb, 0x32, 0xde, 0x14, 0xf1, 0x2d, 0xdc,
  0x27, 0x65, 0x84, 0xee, 0xde, 0xae, 0x6d, 0x21, 0xec, 0x25, 0x3e, 0x41,
  0x41, 0xd7, 0x1e, 0x00, 0x36, 0xec, 0xff, 0xff, 0x04, 0x00, 0x00, 0x00,
  0x3c, 0x00, 0x00, 0x00, 0x42, 0x00, 0x00, 0x00, 0xf9, 0x01, 0x00, 0x00,
  0x5a, 0xfd, 0xff, 0xff, 0xb3, 0xfc, 0xff, 0xff, 0x35, 0x03, 0x00, 0x00,
  0x70, 0xfd, 0xff, 0xff, 0xa0, 0x01, 0x00, 0x00, 0xbf, 0x01, 0x00, 0x00,
  0xe3, 0x01, 0x00, 0x00, 0xba, 0xfd, 0xff, 0xff, 0xca, 0xfc, 0xff, 0xff,
  0xee, 0xfb, 0xff, 0xff, 0x7e, 0xfd, 0xff, 0xff, 0xf2, 0xfe, 0xff, 0xff,
  0xb3, 0xfd, 0xff, 0xff, 0x7e, 0xec, 0xff, 0xff, 0x04, 0x00, 0x00, 0x00,
  0xd0, 0x02, 0x00, 0x00, 0xbd, 0xa1, 0xfb, 0x85, 0x35, 0xf9, 0x3a, 0xf5,
  0x1f, 0x3b, 0x0c, 0x34, 0x19, 0x12, 0xf1, 0x07, 0x44, 0xf6, 0x04, 0xfd,
  0xf0, 0xa1, 0xc0, 0x7f, 0x0f, 0x42, 0x3d, 0x3e, 0xf7, 0x15, 0x15, 0x2e,
  0xb4, 0x13, 0x0b, 0xd9, 0xf8, 0x4a, 0xfb, 0xf6, 0x38, 0x50, 0xaf, 0xea,
  0xe9, 0x31, 0xf3, 0x48, 0x6b, 0xe3, 0x21, 0x1e, 0xd6, 0x2d, 0x14, 0xc2,
  0x1e, 0xc9, 0xec, 0xb3, 0x4a, 0xfd, 0x10, 0x6d, 0xd1, 0xc1, 0xaf, 0xf1,
  0x39, 0x28, 0xa3, 0xe6, 0xda, 0xb7, 0x17, 0x20, 0xed, 0xc6, 0xd2, 0xe5,
  0x27, 0xc2, 0x81, 0xef, 0x17, 0xbb, 0xe6, 0x11, 0xe3, 0xba, 0xca, 0x1c,
  0x13, 0x20, 0xf1, 0x20, 0xf8, 0x06, 0x02, 0x2f, 0xbe, 0xeb, 0x0b, 0xe1,
  0x24, 0xeb, 0xe4, 0x16, 0xa0, 0x49, 0xcc, 0x2d, 0xd4, 0x55, 0xd9, 0x43,
  0x09, 0x2c, 0x15, 0x81, 0x28, 0xb5, 0xe6, 0xa2, 0xf3, 0xf8, 0x00, 0x9b,
  0xe3, 0xf2, 0x02, 0x11, 0x1b, 0x19, 0x2e, 0xff, 0x33, 0x14, 0x1b, 0xf2,
  0x33, 0xe7, 0x03, 0x20, 0xae, 0x0b, 0x36, 0xf5, 0xf2, 0x2b, 0xd4, 0x0a,
  0x15, 0xb2, 0x1d, 0x14, 0x23, 0x9e, 0x21, 0xda, 0x39, 0xfc, 0x39, 0x18,
  0x7f, 0x36, 0x26, 0x68, 0xf7, 0xb8, 0x1a, 0xee, 0xd0, 0x3f, 0xe4, 0xd7,
  0x35, 0xb3, 0x04, 0xb8, 0x0c, 0xe6, 0xe3, 0x3e, 0xeb, 0xd2, 0xbc, 0x45,
  0x28, 0x13, 0xdc, 0xf9, 0x34, 0xf9, 0xde, 0x2b, 0x29, 0xde, 0x18, 0x1f,
  0xef, 0xe7, 0x51, 0x43, 0x7f, 0xbc, 0xfd, 0xce, 0xe2, 0x19, 0xe7, 0xff,
  0x01, 0x04, 0xce, 0x3d, 0x05, 0xf2, 0x05, 0x09, 0xe7, 0x05, 0xde, 0xc9,
  0x01, 0xef, 0x09, 0x3d, 0xca, 0x25, 0xf0, 0xbb, 0xc5, 0x12, 0xda, 0xdb,
  0xed, 0x0c, 0x5b, 0xc6, 0xf3, 0x59, 0xcf, 0xe3, 0x33, 0xbd, 0x03, 0x11,
  0x02, 0xb9, 0xca, 0x18, 0x3e, 0xf5, 0x6c, 0x2a, 0xd6, 0xb5, 0x52, 0x2f,
  0x23, 0xe6, 0x2b, 0x70, 0xb5, 0x21, 0xc4, 0x12, 0xc2, 0x40, 0x1a, 0xad,
  0xe0, 0x2b, 0xcb, 0xbd, 0xff, 0xfa, 0xe2, 0xab, 0xa4, 0xd0, 0xf4, 0x81,
  0xbd, 0xc0, 0x3d, 0xe2, 0xd2, 0x22, 0x3c, 0xcd, 0xd9, 0xc3, 0xf6, 0x1c,
  0xf2, 0x34, 0x3f, 0x19, 0xe8, 0xb8, 0x15, 0xe5, 0x38, 0xc5, 0x43, 0xf7,
  0x12, 0xbc, 0x81, 0x16, 0xdc, 0xcc, 0xea, 0x2e, 0xcf, 0xe7, 0x0c, 0x04,
  0xd6, 0x42, 0x4e, 0xf3, 0x35, 0x33, 0xfb, 0xe4, 0xd4, 0x09, 0xde, 0xd8,
  0xb1, 0xf2, 0xf6, 0x35, 0x9b, 0xc3, 0x51, 0xf7, 0xbd, 0x0e, 0xb4, 0xf9,
  0xfd, 0xe8, 0x0c, 0x44, 0x0f, 0x9e, 0x7d, 0xeb, 0x1e, 0xb1, 0x16, 0x26,
  0x47, 0x9e, 0x81, 0x49, 0xe6, 0xff, 0xcb, 0x23, 0xe8, 0xf5, 0x2c, 0xe9,
  0x45, 0x59, 0x31, 0x22, 0xf1, 0x04, 0x00, 0xb6, 0xd7, 0x40, 0x26, 0xd1,
  0xca, 0x24, 0xd5, 0x21, 0x25, 0x18, 0xcf, 0x11, 0xcb, 0x2a, 0xa3, 0xb4,
  0xb9, 0x17, 0x70, 0xae, 0x1a, 0xf1, 0x0e, 0xf3, 0xd9, 0x9c, 0x88, 0xd9,
  0xc8, 0xc4, 0x08, 0xa1, 0x2c, 0xca, 0xea, 0x08, 0x7f, 0x99, 0x24, 0x73,
  0x46, 0xbc, 0x14, 0x31, 0xeb, 0xb5, 0xfa, 0x3b, 0xf6, 0xb6, 0x33, 0x63,
  0x01, 0x11, 0x01, 0xcc, 0xbf, 0xec, 0x35, 0xda, 0xbb, 0x1f, 0xb8, 0xfb,
  0x44, 0x4e, 0x46, 0xf5, 0xb4, 0xe8, 0xca, 0x47, 0x56, 0x14, 0x7c, 0x46,
  0x06, 0xf6, 0xdb, 0xb8, 0x3e, 0x3f, 0x81, 0x1d, 0x62, 0x98, 0xa9, 0xfb,
  0x55, 0xed, 0xe3, 0xd8, 0xbc, 0xe4, 0x69, 0x0a, 0xa9, 0x56, 0x1f, 0xed,
  0x01, 0x1b, 0xea, 0xa2, 0xda, 0xdf, 0x36, 0x03, 0xf0, 0x24, 0xea, 0xb4,
  0x3a, 0xe0, 0xc9, 0x93, 0xf1, 0x39, 0x25, 0x14, 0xe3, 0xf9, 0xa0, 0x1e,
  0x49, 0xdc, 0x9d, 0x1b, 0x0c, 0xe9, 0xc1, 0xcc, 0x09, 0xee, 0x19, 0xd1,
  0x37, 0xe6, 0x1f, 0x7f, 0x1e, 0xee, 0x37, 0xce, 0x11, 0xce, 0x55, 0x26,
  0xdf, 0x01, 0xd1, 0xf0, 0xca, 0xf1, 0xdd, 0x20, 0xf7, 0x00, 0xfa, 0xd7,
  0x5e, 0xe8, 0xff, 0x25, 0x00, 0xe2, 0xb1, 0x11, 0xf2, 0xff, 0xd2, 0xd0,
  0xc8, 0xff, 0xed, 0xb8, 0x08, 0x46, 0xe2, 0xe9, 0x28, 0x3a, 0x39, 0x7a,
  0x0d, 0xea, 0xde, 0x35, 0x37, 0x37, 0x6a, 0x95, 0x27, 0x12, 0xd0, 0x2a,
  0xc9, 0x23, 0xb4, 0x81, 0x17, 0x0f, 0xac, 0xd1, 0xe5, 0xcc, 0x3a, 0xca,
  0x79, 0x16, 0x81, 0x04, 0x03, 0x19, 0x18, 0xd0, 0x06, 0xef, 0x17, 0xdf,
  0xc1, 0x24, 0xec, 0x47, 0xf9, 0x18, 0x2b, 0xcd, 0x22, 0x37, 0x03, 0x0a,
  0xcb, 0xf6, 0x73, 0x2d, 0x3a, 0x47, 0x56, 0x90, 0x50, 0xf5, 0x1b, 0x6f,
  0x85, 0x58, 0xfa, 0xab, 0xbc, 0xc2, 0x36, 0x22, 0x2e, 0x22, 0x20, 0xfe,
  0x10, 0xf1, 0x0c, 0x35, 0xc4, 0x19, 0x2a, 0x27, 0xad, 0x41, 0x1c, 0x4d,
  0x1a, 0x21, 0x2d, 0x86, 0xd4, 0xe0, 0x25, 0x9a, 0xe8, 0x15, 0x10, 0xc6,
  0xb0, 0xba, 0xe3, 0xe3, 0xf7, 0xb8, 0x7f, 0x3a, 0x2b, 0xd3, 0x6c, 0x51,
  0x75, 0xe1, 0x06, 0x13, 0xed, 0x04, 0xaf, 0x2d, 0x1c, 0xd9, 0xee, 0xf4,
  0x3a, 0xd7, 0x25, 0xb6, 0xe3, 0xf2, 0xf4, 0xff, 0xf1, 0xeb, 0x4f, 0x22,
  0x7f, 0x2e, 0xe5, 0xf9, 0x11, 0xd2, 0x0a, 0xe2, 0x1f, 0x22, 0x09, 0xcc,
  0xef, 0xd2, 0xcf, 0x09, 0x0d, 0x16, 0xfd, 0x0d, 0xed, 0xe4, 0x28, 0x09,
  0xfa, 0x07, 0x0f, 0x0d, 0x5a, 0xef, 0xff, 0xff, 0x04, 0x00, 0x00, 0x00,
  0x30, 0x00, 0x00, 0x00, 0xeb, 0xfb, 0xff, 0xff, 0x35, 0x03, 0x00, 0x00,
  0x0a, 0xf9, 0xff, 0xff, 0x33, 0x03, 0x00, 0x00, 0x70, 0xfe, 0xff, 0xff,
  0x43, 0x09, 0x00, 0x00, 0x13, 0xf1, 0xff, 0xff, 0x4a, 0xff, 0xff, 0xff,
  0x1e, 0x04, 0x00, 0x00, 0x7f, 0x04, 0x00, 0x00, 0xe9, 0x24, 0x00, 0x00,
  0x50, 0xe9, 0xff, 0xff, 0x96, 0xef, 0xff, 0xff, 0x04, 0x00, 0x00, 0x00,
  0x10, 0x0e, 0x00, 0x00, 0xd1, 0x0d, 0xf2, 0x7c, 0x01, 0x3b, 0xf1, 0xef,
  0x0f, 0xee, 0xee, 0x19, 0x18, 0x22, 0xdc, 0x7f, 0x3c, 0xf8, 0x05, 0xe7,
  0x1b, 0x06, 0xfb, 0xd2, 0xf8, 0xe9, 0xd9, 0xd3, 0xdc, 0x07, 0xfe, 0x1f,
  0x2f, 0xec, 0x11, 0xf0, 0x21, 0x1f, 0x06, 0xfa, 0x42, 0xf8, 0x26, 0x19,
  0x11, 0x0b, 0x02, 0x18, 0xf1, 0xf4, 0xd8, 0x1d, 0xe0, 0x07, 0x11, 0x10,
  0x1e, 0x03, 0x05, 0x0e, 0xca, 0x25, 0xe2, 0x6f, 0x0a, 0xf2, 0xe6, 0x08,
  0xef, 0xea, 0x31, 0xca, 0xda, 0x0f, 0x17, 0x59, 0x42, 0xed, 0xf1, 0xd7,
  0x3b, 0x2d, 0x3f, 0x10, 0xb6, 0xde, 0xee, 0x22, 0xef, 0x24, 0xc3, 0xdc,
  0xf0, 0x0a, 0xf7, 0xce, 0xdc, 0x08, 0xee, 0x12, 0xfb, 0xe8, 0xb0, 0xd5,
  0xbd, 0x2a, 0xe5, 0x26, 0xdc, 0xe2, 0xff, 0xfb, 0x0b, 0x0d, 0xd4, 0xb4,
  0x01, 0x0f, 0x01, 0x2b, 0x22, 0xcc, 0xe6, 0x12, 0x41, 0x2e, 0xce, 0xdd,
  0x27, 0xda, 0xfa, 0xfb, 0x2c, 0xfa, 0xe5, 0xf4, 0xf2, 0x18, 0x08, 0xf4,
  0x29, 0x0f, 0x23, 0xe4, 0x32, 0xda, 0xbb, 0x1c, 0x30, 0x10, 0xc3, 0x02,
  0x16, 0xf9, 0xe5, 0x03, 0xff, 0xf9, 0xc9, 0x43, 0x13, 0x49, 0xe6, 0xb8,
  0xf9, 0xe8, 0xe2, 0xea, 0x1f, 0x07, 0xf5, 0x20, 0x02, 0x23, 0xac, 0xad,
  0x1d, 0x1f, 0x3b, 0x0a, 0x08, 0xff, 0xb1, 0x1d, 0x27, 0xfd, 0x09, 0xf6,
  0x26, 0xbb, 0x10, 0xe7, 0x20, 0xd7, 0xb7, 0x24, 0xf0, 0x2a, 0x46, 0xec,
  0xed, 0xe7, 0xf1, 0xb3, 0xcf, 0xfa, 0xe6, 0x12, 0x15, 0xea, 0x2e, 0x0d,
  0xfe, 0xed, 0xd4, 0xf0, 0x2b, 0x1a, 0x14, 0x42, 0xe2, 0x21, 0x12, 0x13,
  0x1c, 0xf6, 0xeb, 0xf6, 0x01, 0x03, 0xed, 0x39, 0xf3, 0xd5, 0xd3, 0xba,
  0xeb, 0x4b, 0x0f, 0x42, 0xf8, 0xfc, 0xe8, 0x37, 0xcf, 0x31, 0x0e, 0xf4,
  0xff, 0xb5, 0xe3, 0xec, 0x00, 0xb6, 0xca, 0x05, 0x0d, 0x28, 0xeb, 0xf3,
  0x2f, 0xd4, 0xc1, 0x96, 0x0e, 0xcd, 0xbb, 0x58, 0xfd, 0xdc, 0xd3, 0xf6,
  0x28, 0xd0, 0xc2, 0xee, 0x06, 0xf5, 0xcd, 0x01, 0xe0, 0x1f, 0x1f, 0x1f,
  0xf7, 0x2e, 0x00, 0xc5, 0x0f, 0x3d, 0xdf, 0x1d, 0xe1, 0x11, 0xd9, 0xeb,
  0x01, 0x38, 0xd2, 0x09, 0x48, 0x93, 0x88, 0xe4, 0xfd, 0xf8, 0x48, 0x1e,
  0xe6, 0xdc, 0xe3, 0xc4, 0x64, 0xc2, 0x88, 0xf0, 0x20, 0x33, 0xf0, 0x39,
  0x53, 0xc4, 0xe8, 0xb7, 0x40, 0xd7, 0xe2, 0x1d, 0x52, 0xd6, 0xf1, 0x26,
  0xef, 0x23, 0xf0, 0xa7, 0xee, 0xf1, 0x00, 0x0f, 0x7b, 0xdb, 0x0e, 0xd3,
  0xf0, 0x11, 0x52, 0x14, 0xd1, 0x47, 0xbc, 0x00, 0x10, 0x16, 0xdb, 0x97,
  0xe8, 0xfc, 0x15, 0xe5, 0x32, 0xdd, 0xcc, 0xb8, 0x15, 0x0d, 0x3c, 0xcb,
  0x17, 0xd8, 0xce, 0xb3, 0x4b, 0xc3, 0xf0, 0xcc, 0x14, 0xf2, 0x24, 0x18,
  0xf2, 0xdc, 0x0a, 0x96, 0x16, 0xa7, 0xd4, 0x00, 0x3b, 0xf7, 0xea, 0x3d,
  0x26, 0x23, 0x14, 0xfe, 0xfc, 0x17, 0x13, 0x13, 0x29, 0x19, 0x00, 0xe1,
  0x09, 0xf4, 0x23, 0xfb, 0xfb, 0xfe, 0xa2, 0x40, 0x38, 0xec, 0x07, 0xb4,
  0xad, 0x4a, 0x23, 0xa8, 0xf4, 0xe6, 0xad, 0xd8, 0x11, 0x0f, 0x3f, 0xff,
  0x09, 0x1d, 0x6f, 0xdd, 0xe3, 0xb0, 0xe1, 0xd9, 0x2f, 0x21, 0xf1, 0x0d,
  0xf1, 0x0e, 0x44, 0x93, 0xe9, 0xcb, 0xd6, 0x9f, 0xcf, 0xd5, 0xe8, 0xed,
  0x1d, 0x17, 0x23, 0x2f, 0x09, 0xe5, 0xee, 0xd3, 0xf8, 0xda, 0x29, 0x64,
  0xfd, 0x15, 0x05, 0x1f, 0xda, 0x3f, 0xfe, 0x2b, 0x08, 0x81, 0x3e, 0x13,
  0xb3, 0x4b, 0xc5, 0x11, 0x16, 0x3f, 0x28, 0x9f, 0x24, 0x1a, 0xe2, 0x20,
  0x31, 0x08, 0x0c, 0x39, 0xfc, 0x09, 0x2e, 0xe3, 0x03, 0x20, 0x19, 0xf3,
  0xc1, 0x36, 0x24, 0x27, 0x12, 0x14, 0x4e, 0xdb, 0xd9, 0xdb, 0xca, 0xf6,
  0x14, 0x17, 0xfc, 0x0c, 0x02, 0xec, 0x0f, 0xcd, 0xba, 0x23, 0x23, 0x41,
  0xe9, 0xf4, 0x26, 0x63, 0x40, 0x06, 0x08, 0xfb, 0x0a, 0xde, 0x2e, 0x0e,
  0xd7, 0x04, 0xd1, 0x57, 0x0f, 0x47, 0x35, 0xa4, 0xc6, 0x08, 0xb7, 0xe1,
  0xe1, 0x3f, 0x49, 0x4a, 0xfd, 0x0f, 0x3f, 0x89, 0xe4, 0x00, 0xd0, 0x0f,
  0xbe, 0x08, 0xf9, 0xf3, 0xde, 0x3e, 0x06, 0xb8, 0xdd, 0x0f, 0xe6, 0xfa,
  0xf1, 0x1f, 0x22, 0x19, 0x34, 0x0d, 0x3a, 0xaa, 0x03, 0x2c, 0x12, 0x14,
  0xe5, 0x13, 0xf7, 0x48, 0xf6, 0xf4, 0x0e, 0xf2, 0x00, 0xe7, 0xf5, 0x3a,
  0x1e, 0x11, 0xe2, 0x1a, 0xe7, 0x20, 0x25, 0x29, 0xd1, 0xca, 0x14, 0xe8,
  0xce, 0x12, 0xd0, 0x1c, 0xdd, 0xf9, 0x26, 0xe2, 0xed, 0xf2, 0x08, 0x16,
  0xee, 0x00, 0x0b, 0xfc, 0x13, 0x14, 0x14, 0x0d, 0xe9, 0x08, 0xf5, 0x0d,
  0x47, 0xeb, 0x24, 0x1b, 0xe4, 0xdf, 0xfa, 0x4a, 0x0e, 0x23, 0x10, 0x17,
  0x26, 0x0e, 0xdf, 0xf4, 0xe6, 0xe6, 0xf6, 0x7f, 0xf9, 0xc4, 0xe2, 0xfa,
  0x0d, 0xf9, 0xe9, 0x0b, 0xd2, 0x13, 0x09, 0x26, 0x07, 0xe0, 0xd1, 0xee,
  0xc6, 0x1e, 0xdb, 0x14, 0x00, 0x30, 0xf9, 0x0a, 0xde, 0xfc, 0xf2, 0xe3,
  0x13, 0x0f, 0xe2, 0x2c, 0x18, 0x2a, 0x24, 0x1f, 0xce, 0x26, 0xf4, 0x01,
  0x1c, 0x0b, 0x09, 0x0b, 0xeb, 0x13, 0x0d, 0x41, 0xd7, 0x13, 0x1c, 0x11,
  0x34, 0xdd, 0xff, 0xf2, 0xc8, 0xd3, 0xf6, 0x51, 0xf4, 0xf1, 0xe5, 0xdc,
  0xe7, 0x06, 0xf3, 0x0c, 0xe3, 0xf3, 0x0e, 0x14, 0x1c, 0x10, 0xef, 0xe4,
  0xf0, 0x0f, 0xfc, 0x07, 0xf4, 0xf1, 0x17, 0x12, 0xd4, 0xe1, 0xe4, 0xcb,
  0xfd, 0x29, 0x08, 0x0e, 0xe9, 0xf9, 0x0b, 0x12, 0x01, 0xfc, 0xdf, 0x1f,
  0x33, 0x09, 0xe2, 0x24, 0xcf, 0x18, 0xf2, 0x16, 0x0f, 0x02, 0x0d, 0x03,
  0xf6, 0xed, 0xed, 0x08, 0xea, 0x04, 0x04, 0x4b, 0xee, 0x08, 0xdd, 0xfa,
  0x23, 0x00, 0xf5, 0x0c, 0xf0, 0xf6, 0x1c, 0x08, 0xee, 0x10, 0xe4, 0xf6,
  0xe7, 0xfa, 0x0c, 0x1f, 0xef, 0xef, 0xf9, 0xd6, 0xdf, 0x07, 0xf1, 0x10,
  0x1c, 0x0d, 0xe8, 0xe1, 0xd4, 0x0d, 0x0f, 0x29, 0x19, 0xef, 0xf6, 0xe3,
  0xfc, 0x08, 0x09, 0x1f, 0x0d, 0xfc, 0x07, 0x03, 0xe8, 0xe0, 0xeb, 0xf8,
  0x18, 0x12, 0x00, 0xf6, 0xf6, 0x16, 0x06, 0x33, 0xe8, 0xf2, 0x0b, 0x0a,
  0x1b, 0x15, 0xe9, 0x2f, 0xda, 0x07, 0xf9, 0xc8, 0xfc, 0x09, 0x00, 0xeb,
  0xe3, 0xd2, 0xce, 0x01, 0xf7, 0xe5, 0xdc, 0xc8, 0xf8, 0x23, 0x06, 0xd5,
  0x06, 0xe2, 0x02, 0xf9, 0xcd, 0xfa, 0xe0, 0xe4, 0xfc, 0xf8, 0x04, 0xf9,
  0x1b, 0x21, 0x28, 0x2e, 0xf3, 0xfc, 0x11, 0x01, 0x0d, 0xf9, 0xf6, 0x10,
  0xfc, 0xf9, 0xf9, 0x30, 0xe7, 0x08, 0x33, 0x2a, 0xfb, 0xe9, 0xe5, 0xff,
  0xdd, 0xf9, 0x02, 0x4f, 0x66, 0x08, 0xf8, 0x81, 0x25, 0xc4, 0x17, 0x60,
  0x2f, 0xf0, 0xf4, 0x2e, 0x52, 0x07, 0x28, 0xaf, 0xe5, 0xc9, 0xf5, 0x31,
  0x37, 0xd8, 0xfb, 0x15, 0x2d, 0x04, 0xde, 0xa3, 0xe1, 0xed, 0x3e, 0x54,
  0x45, 0xf2, 0xc8, 0x0f, 0x10, 0xd1, 0xf8, 0xe4, 0x09, 0xcf, 0x05, 0x02,
  0x1c, 0xdb, 0xb4, 0xdc, 0x42, 0xcf, 0x2d, 0xc0, 0x0a, 0x05, 0xff, 0x21,
  0x0e, 0xcd, 0xe9, 0xf7, 0x16, 0xcd, 0xe6, 0x8f, 0xf2, 0xf1, 0x34, 0x39,
  0x04, 0xf0, 0xec, 0x00, 0x2a, 0xbd, 0x20, 0xb9, 0x15, 0x13, 0x0b, 0x05,
  0x2e, 0xc8, 0xc0, 0x3d, 0x1f, 0x0e, 0x10, 0xc9, 0xec, 0xf3, 0x40, 0x02,
  0x2d, 0xf1, 0x08, 0xf7, 0x01, 0xd8, 0xe2, 0xce, 0xe3, 0xe8, 0x0a, 0x08,
  0xe7, 0x05, 0xe5, 0x0d, 0xd6, 0x06, 0xe7, 0xa9, 0x04, 0xb5, 0xee, 0xda,
  0x06, 0xfd, 0xf0, 0x1f, 0x31, 0x05, 0xce, 0x5b, 0x16, 0x1b, 0x4f, 0x35,
  0x20, 0x03, 0xe5, 0x30, 0xf4, 0x0f, 0xfa, 0x39, 0xfc, 0x36, 0x25, 0x02,
  0x13, 0xe2, 0xd8, 0x1c, 0x2b, 0xf0, 0xe0, 0x4e, 0xf3, 0x5c, 0xd7, 0x0f,
  0x14, 0x13, 0x30, 0x4b, 0xe7, 0xd0, 0xd2, 0x04, 0xc9, 0xc7, 0xe2, 0xd1,
  0xcb, 0x00, 0xde, 0xe0, 0xc5, 0xdd, 0xab, 0xee, 0xe4, 0xa8, 0x1e, 0xf3,
  0x0a, 0xce, 0xb6, 0xe4, 0x06, 0x04, 0x14, 0x2c, 0xee, 0x0a, 0xf5, 0x04,
  0xd4, 0x24, 0xee, 0x05, 0x02, 0xee, 0x25, 0xfe, 0x1b, 0x0d, 0xd4, 0x13,
  0xfc, 0x08, 0xd4, 0x01, 0xe3, 0x2e, 0xe9, 0x42, 0x1f, 0x02, 0x19, 0x19,
  0xf9, 0x2d, 0x19, 0x30, 0x06, 0x2c, 0xda, 0xdf, 0xea, 0xf1, 0xdf, 0xdb,
  0xe7, 0x0d, 0x09, 0xe1, 0xdb, 0xed, 0xee, 0xe3, 0xec, 0xd5, 0xda, 0x02,
  0xe0, 0xd4, 0x18, 0x24, 0xd6, 0xd6, 0xdb, 0x18, 0x1e, 0xe2, 0xe8, 0x1d,
  0xdd, 0x22, 0xd4, 0x04, 0xd8, 0x05, 0x15, 0xf0, 0xd0, 0xda, 0xde, 0x19,
  0x30, 0xea, 0xf2, 0x0c, 0xee, 0xf9, 0x2d, 0xf9, 0x41, 0xed, 0x37, 0xfc,
  0x0e, 0x00, 0x0a, 0x19, 0xee, 0xd8, 0xd9, 0xd8, 0xd4, 0x11, 0xb5, 0x02,
  0xbf, 0xe8, 0x1b, 0x02, 0xf3, 0x0d, 0xd4, 0x24, 0xe2, 0x1c, 0xcc, 0xc2,
  0x11, 0x1d, 0xe5, 0xf5, 0x2c, 0x25, 0x28, 0xf7, 0xc8, 0xeb, 0x2a, 0xd2,
  0xf5, 0x31, 0x25, 0x00, 0x21, 0xfe, 0xdb, 0x07, 0xd0, 0xeb, 0x04, 0xeb,
  0xcf, 0x17, 0x10, 0x04, 0xb8, 0xcd, 0xd2, 0xdf, 0x99, 0xee, 0x9c, 0xb0,
  0xea, 0xda, 0xf1, 0xb2, 0xc7, 0x1b, 0x23, 0x3a, 0xf0, 0xed, 0x9f, 0x8f,
  0xd1, 0xd0, 0xf0, 0xd3, 0xee, 0xf7, 0x1a, 0x1b, 0x09, 0xeb, 0xcc, 0xe4,
  0x88, 0xed, 0xff, 0x02, 0xa9, 0xe6, 0xf3, 0xe5, 0xe2, 0xec, 0xc6, 0xbd,
  0xfa, 0x40, 0xfd, 0xe8, 0x12, 0xe5, 0xea, 0xf5, 0xcc, 0x1d, 0x23, 0xea,
  0x53, 0x1c, 0x08, 0xc2, 0x2d, 0xfd, 0xcc, 0xfa, 0xda, 0x1e, 0x1d, 0x2e,
  0x0f, 0xcf, 0xf1, 0xe5, 0x18, 0x14, 0xb9, 0xfe, 0xbc, 0xf1, 0x0d, 0xe8,
  0xdc, 0xf4, 0x13, 0xfb, 0xf3, 0xdf, 0xdf, 0xdc, 0xce, 0x13, 0x21, 0xf9,
  0xde, 0xd5, 0x09, 0x03, 0x81, 0xf9, 0xfe, 0x54, 0xbf, 0xb3, 0xb1, 0xca,
  0xd5, 0x0e, 0xad, 0xd1, 0xdb, 0xe1, 0x01, 0x20, 0x02, 0xca, 0x01, 0xd2,
  0xdc, 0xed, 0xd8, 0xe3, 0x18, 0x4c, 0x1b, 0x3c, 0x01, 0x44, 0xb7, 0xec,
  0x49, 0x09, 0x45, 0x22, 0x08, 0x11, 0xf6, 0xe3, 0xcf, 0x1b, 0x46, 0x60,
  0x0d, 0x32, 0x22, 0x20, 0x27, 0x07, 0xfe, 0xf7, 0x32, 0x25, 0x79, 0x45,
  0x1c, 0xdd, 0x1f, 0xd1, 0x02, 0x0b, 0xe2, 0x17, 0x13, 0xfd, 0xde, 0x39,
  0x49, 0xff, 0x33, 0x08, 0x0c, 0xd0, 0xe0, 0x01, 0x1d, 0xe1, 0x06, 0xcd,
  0x2e, 0xf1, 0xfe, 0xfa, 0xef, 0x08, 0x4a, 0x53, 0x2e, 0xd3, 0xc6, 0xd8,
  0x1b, 0x4e, 0x00, 0x13, 0xf3, 0x2d, 0x38, 0x17, 0xf0, 0x00, 0xf0, 0xfd,
  0xef, 0xef, 0xe1, 0xf4, 0x18, 0xe2, 0x51, 0x06, 0xf5, 0x27, 0x21, 0x32,
  0x14, 0x13, 0x34, 0xdf, 0xd9, 0x32, 0xc7, 0xe4, 0xc1, 0xf9, 0xbe, 0xbc,
  0xf0, 0xe5, 0xfc, 0xcf, 0xca, 0x20, 0xda, 0xc7, 0xb9, 0x0b, 0xfa, 0xe1,
  0xde, 0x3c, 0xe8, 0xfd, 0xe2, 0x3f, 0x52, 0x46, 0xea, 0x17, 0xc9, 0xda,
  0x1a, 0xf6, 0x10, 0x2d, 0x2c, 0xf6, 0x0d, 0x06, 0x30, 0xf9, 0xdc, 0x39,
  0xea, 0xc8, 0x0c, 0x02, 0x26, 0xf9, 0xdd, 0xec, 0x52, 0x24, 0x43, 0x0d,
  0x4f, 0xf6, 0xf4, 0xbf, 0x1f, 0x3e, 0xe1, 0x3a, 0xef, 0x35, 0xde, 0xf3,
  0x01, 0xf1, 0x1d, 0x44, 0x49, 0x2d, 0x26, 0x1b, 0xff, 0x37, 0x24, 0x07,
  0x08, 0x11, 0x3e, 0xea, 0xcd, 0x14, 0x1b, 0x3a, 0x0f, 0x48, 0xf9, 0x33,
  0x06, 0xe1, 0x0d, 0xf3, 0x0e, 0xc6, 0xdf, 0x3c, 0x39, 0xf3, 0x37, 0xf8,
  0xf2, 0xea, 0xe8, 0xf1, 0x2f, 0xed, 0xdb, 0x21, 0x36, 0xe0, 0xef, 0x08,
  0xed, 0xea, 0xfd, 0xe5, 0x1a, 0xfb, 0xee, 0x43, 0xff, 0x7f, 0xad, 0x1a,
  0xdf, 0x07, 0x66, 0x18, 0xdd, 0x11, 0xf9, 0xed, 0x1b, 0x52, 0x0e, 0xf6,
  0x3f, 0x1c, 0xfc, 0xff, 0xf2, 0x24, 0xfb, 0xd1, 0x18, 0xfb, 0xf9, 0x24,
  0xc8, 0x18, 0x30, 0xbb, 0x43, 0xd5, 0x89, 0x1f, 0xe4, 0xa4, 0xd9, 0x18,
  0x10, 0x17, 0xbc, 0xc1, 0x3e, 0x26, 0xc7, 0x10, 0xf3, 0xe5, 0x2f, 0x15,
  0xf5, 0xdc, 0xfc, 0xa3, 0x16, 0x36, 0x30, 0x02, 0x14, 0x3f, 0xa5, 0xf3,
  0xf4, 0x24, 0xf4, 0xf6, 0xec, 0x39, 0xe1, 0x0b, 0x14, 0xe8, 0x12, 0xf4,
  0xef, 0x38, 0xc6, 0xc8, 0x0f, 0xd7, 0xc0, 0xd3, 0x28, 0x18, 0x00, 0xc6,
  0xee, 0xf3, 0xd6, 0x03, 0x05, 0x06, 0xe2, 0x81, 0x12, 0xc2, 0x1e, 0xc8,
  0xe0, 0xc9, 0xc1, 0xc5, 0x19, 0xcc, 0xa0, 0xb5, 0x01, 0xf0, 0x2e, 0x38,
  0xfe, 0x1a, 0xc8, 0xf4, 0x23, 0x45, 0x41, 0xec, 0x02, 0xf7, 0xf1, 0x2b,
  0x0e, 0x5e, 0xdc, 0x05, 0xf1, 0xf2, 0x22, 0x02, 0xf4, 0xe3, 0xc6, 0xb3,
  0x00, 0x15, 0x14, 0x0d, 0xf2, 0x0e, 0x06, 0xec, 0x2a, 0xdd, 0xc4, 0x09,
  0xcd, 0x08, 0xc8, 0x22, 0xeb, 0xc2, 0xb9, 0xf9, 0xdd, 0xaa, 0x05, 0xca,
  0x08, 0xf8, 0xe6, 0xf2, 0x1c, 0xcf, 0xfb, 0x1b, 0x22, 0xf6, 0x2b, 0xf7,
  0x06, 0x33, 0xe3, 0xfa, 0xdd, 0x5a, 0x35, 0xf7, 0xf4, 0xeb, 0x1a, 0x1d,
  0x3d, 0x20, 0x05, 0x41, 0xd2, 0x18, 0xf1, 0xd4, 0xf5, 0xf2, 0xfe, 0xc5,
  0xf0, 0x2d, 0x26, 0xd8, 0xa9, 0x0c, 0x08, 0x07, 0xeb, 0xe0, 0xb8, 0xee,
  0xca, 0x20, 0xc3, 0xd7, 0xda, 0x01, 0xb8, 0xd7, 0xd5, 0xef, 0xd9, 0xe6,
  0xb5, 0x0f, 0x12, 0xe2, 0x1f, 0x13, 0x29, 0xc3, 0x42, 0xce, 0xd9, 0xf4,
  0xda, 0xce, 0x1b, 0xe9, 0xff, 0x2b, 0x6e, 0xf4, 0xe3, 0xe7, 0xca, 0xb6,
  0x0b, 0x23, 0x04, 0x03, 0xe1, 0x20, 0x21, 0x02, 0xdd, 0xee, 0x9e, 0xb5,
  0xc2, 0xe2, 0x2b, 0x1e, 0xdb, 0x2f, 0x4a, 0xed, 0xf2, 0x0d, 0xab, 0x93,
  0x81, 0x24, 0x14, 0x38, 0xb1, 0x20, 0x29, 0xbf, 0xea, 0x1c, 0xd0, 0xae,
  0xb4, 0xd1, 0xeb, 0x02, 0xe9, 0xfe, 0x39, 0xf5, 0xf8, 0x21, 0xf9, 0xde,
  0xdc, 0x14, 0xfe, 0x18, 0xd8, 0x03, 0x48, 0xce, 0xbd, 0xf9, 0xf8, 0xe4,
  0xf6, 0xe2, 0xe5, 0x2b, 0xfe, 0xfc, 0x48, 0xe6, 0xb0, 0xde, 0xce, 0xed,
  0xf0, 0xd9, 0xf7, 0x22, 0xd5, 0x1c, 0x23, 0xc9, 0xdb, 0x28, 0xec, 0xfa,
  0xc5, 0xc7, 0x28, 0x0f, 0xda, 0x13, 0x2e, 0x03, 0x17, 0xfe, 0xf1, 0x05,
  0x26, 0xcb, 0x3d, 0xe1, 0xfe, 0xfe, 0x35, 0x02, 0x28, 0x26, 0x0c, 0x14,
  0xf4, 0xef, 0x11, 0xf2, 0x2d, 0xe7, 0x1e, 0xe4, 0x07, 0x0d, 0xf3, 0x12,
  0x29, 0x07, 0x04, 0xf1, 0x24, 0xd3, 0x1b, 0xdc, 0xf6, 0xf6, 0x3c, 0x45,
  0x0c, 0xf4, 0xfb, 0xe1, 0x1e, 0xb1, 0xf7, 0x00, 0x07, 0x01, 0x6c, 0x43,
  0x10, 0xda, 0x02, 0xc1, 0x33, 0xd0, 0xcd, 0xeb, 0x21, 0xfa, 0x55, 0x2d,
  0xfb, 0xc8, 0x09, 0xc9, 0x31, 0xb7, 0x16, 0x25, 0x0e, 0x08, 0x0b, 0x36,
  0x02, 0xf1, 0xea, 0xde, 0x44, 0x04, 0x04, 0x1e, 0x09, 0x0a, 0x50, 0x29,
  0x34, 0x13, 0x50, 0x16, 0x50, 0x1a, 0xdf, 0x46, 0x19, 0x18, 0x3b, 0x26,
  0x23, 0x0f, 0x0a, 0xf8, 0xf6, 0xe1, 0xc9, 0x5e, 0xff, 0xea, 0x40, 0x04,
  0x05, 0xd2, 0x16, 0xd5, 0x00, 0x15, 0x20, 0x11, 0x28, 0x1a, 0x38, 0x18,
  0x0f, 0x20, 0xe5, 0xdb, 0xf1, 0xc6, 0xe3, 0x0d, 0x11, 0xec, 0x2c, 0x24,
  0xf9, 0xc6, 0x20, 0xf5, 0x33, 0xfb, 0x0e, 0x41, 0x28, 0x0a, 0x09, 0x0a,
  0x0a, 0xdf, 0x14, 0x35, 0x04, 0xc6, 0x25, 0x07, 0x3d, 0x06, 0x01, 0xcf,
  0xfd, 0x0d, 0x20, 0xf9, 0xdc, 0xf1, 0x10, 0x0b, 0x21, 0xee, 0xea, 0xe6,
  0xc2, 0xcf, 0x1e, 0xb5, 0xec, 0xbf, 0xf2, 0x16, 0x1e, 0x1d, 0x07, 0xf5,
  0xfc, 0xd4, 0xd9, 0xe3, 0xc1, 0xf6, 0xf1, 0x2c, 0x00, 0xe5, 0xf4, 0xdc,
  0xf1, 0x0b, 0x11, 0xc6, 0x0e, 0xfe, 0x0d, 0xda, 0x24, 0x2a, 0x30, 0xfc,
  0x11, 0x17, 0x7f, 0xee, 0x0b, 0x08, 0xe1, 0xeb, 0x38, 0x0f, 0xee, 0xff,
  0xfe, 0x07, 0x59, 0x09, 0xe6, 0xba, 0xff, 0xf6, 0xe1, 0x10, 0x07, 0xe8,
  0x2a, 0xd4, 0x20, 0x11, 0xec, 0xd9, 0xf4, 0xe4, 0xc3, 0xda, 0x01, 0xe8,
  0x00, 0xee, 0xd9, 0x03, 0xe4, 0xd5, 0xef, 0x12, 0xe5, 0xf0, 0xe5, 0x15,
  0xdd, 0xff, 0xd6, 0xf1, 0x05, 0x1e, 0x39, 0xe4, 0x2d, 0x28, 0x0e, 0x1a,
  0xe1, 0x20, 0x37, 0x11, 0xfa, 0x25, 0x14, 0xd9, 0x27, 0xf5, 0xf6, 0xfd,
  0x07, 0x1a, 0x35, 0xf0, 0xe9, 0xcc, 0x08, 0xd9, 0xec, 0x06, 0xd6, 0xdd,
  0x2d, 0xf8, 0x01, 0xe4, 0xec, 0x10, 0x02, 0xf7, 0x0e, 0x19, 0xd1, 0x00,
  0x1b, 0xf2, 0x12, 0x0b, 0xc7, 0xf1, 0x18, 0x21, 0x1b, 0xfe, 0xf0, 0x10,
  0x26, 0x00, 0x05, 0xf1, 0xd9, 0x01, 0x18, 0x45, 0xc8, 0x09, 0xed, 0xc4,
  0xef, 0x10, 0xe2, 0xea, 0xad, 0x11, 0x18, 0x0e, 0xbf, 0xf0, 0xc0, 0xbb,
  0xbf, 0x26, 0xc9, 0xf3, 0xfd, 0x12, 0x17, 0x16, 0xf2, 0x30, 0xdf, 0xfc,
  0xfd, 0xf5, 0x26, 0xe5, 0x02, 0xfd, 0x1e, 0x09, 0x27, 0xfb, 0xc3, 0x05,
  0xe0, 0x1a, 0x30, 0x09, 0x04, 0xe5, 0x33, 0x2f, 0x23, 0x41, 0xe7, 0x12,
  0xfa, 0x15, 0x25, 0x1d, 0xf1, 0xd4, 0xf7, 0xe0, 0xb0, 0xd0, 0xea, 0x0e,
  0xec, 0x0a, 0xf4, 0xe0, 0x0c, 0xfc, 0xe7, 0x01, 0xd6, 0xd9, 0x1a, 0xe4,
  0xf2, 0x0b, 0xfa, 0x19, 0xfb, 0xe8, 0x14, 0x00, 0x0e, 0xd9, 0x1e, 0xf0,
  0xdd, 0xfb, 0xd3, 0x2c, 0xfd, 0x16, 0x18, 0x16, 0xe3, 0xf8, 0xe4, 0xf0,
  0xff, 0xf9, 0xf7, 0x35, 0x02, 0xee, 0x2a, 0x09, 0x00, 0xec, 0x03, 0x0e,
  0x0a, 0xff, 0xe2, 0x44, 0xda, 0xfd, 0xf4, 0x11, 0xcd, 0x3a, 0x07, 0x1f,
  0x04, 0xfa, 0xf0, 0x00, 0xe5, 0xfc, 0xe8, 0x12, 0xeb, 0x0c, 0xdd, 0x24,
  0x0a, 0xe2, 0xff, 0xeb, 0x03, 0x09, 0x0f, 0x34, 0x18, 0xd8, 0x27, 0x26,
  0xec, 0xf2, 0x00, 0xf8, 0x27, 0x1b, 0x04, 0x1d, 0x03, 0xe7, 0x2c, 0x01,
  0x04, 0x00, 0xe2, 0x30, 0xe8, 0x1b, 0x03, 0x1d, 0xf1, 0xe4, 0x29, 0x13,
  0xe8, 0x22, 0xcd, 0xfa, 0xdc, 0x14, 0x3a, 0xf7, 0xdf, 0xfe, 0xe7, 0xfa,
  0xc6, 0x37, 0x13, 0xf1, 0xf8, 0xf6, 0x04, 0xf4, 0xbd, 0xbf, 0xf2, 0xfd,
  0xf2, 0x2c, 0xe0, 0x3b, 0x02, 0xe8, 0x22, 0xd7, 0x15, 0xe1, 0x0f, 0xde,
  0xf0, 0xed, 0xd6, 0x05, 0xdf, 0xe5, 0xfd, 0xba, 0xc4, 0xec, 0xdc, 0xe7,
  0xc5, 0x13, 0xec, 0x02, 0xb5, 0xcd, 0xd4, 0x81, 0xb1, 0xac, 0xe6, 0xc0,
  0xb7, 0xee, 0xdf, 0xf5, 0xb2, 0x2e, 0x10, 0x04, 0xfa, 0x01, 0xd2, 0xd5,
  0xf9, 0x02, 0x3e, 0x01, 0xd9, 0x1b, 0x22, 0xe4, 0xd4, 0xe6, 0xd3, 0xfe,
  0xcd, 0x02, 0x20, 0x0d, 0xfb, 0x13, 0x55, 0xcc, 0x01, 0x09, 0xed, 0xbd,
  0xec, 0x0d, 0x04, 0x45, 0xe1, 0xe7, 0xe9, 0xad, 0x17, 0xe3, 0xd2, 0xd7,
  0x96, 0x0d, 0x22, 0x18, 0xf4, 0xeb, 0x14, 0xbd, 0xbb, 0x15, 0xa7, 0x9c,
  0x88, 0xe7, 0xdf, 0x0b, 0xb8, 0x28, 0xfb, 0x9f, 0xe5, 0x29, 0xd2, 0x20,
  0xdd, 0x46, 0x36, 0x22, 0xec, 0x0e, 0x44, 0xe2, 0xed, 0xf1, 0xea, 0x20,
  0xdc, 0x19, 0x34, 0x20, 0xaf, 0x09, 0x32, 0xe0, 0x1c, 0xd8, 0xf0, 0xff,
  0xec, 0x26, 0x29, 0x3e, 0xe6, 0xf1, 0x0b, 0xca, 0x2f, 0x04, 0x21, 0xe9,
  0xc9, 0xd7, 0x4c, 0xfb, 0xf9, 0xfb, 0x28, 0xd8, 0x03, 0xf6, 0xf5, 0x0b,
  0xea, 0xe4, 0x0a, 0x18, 0x1d, 0x15, 0x31, 0xaf, 0x1d, 0x0b, 0xed, 0xc8,
  0xe4, 0x00, 0xdd, 0x30, 0x12, 0x06, 0x35, 0xe2, 0x13, 0x0a, 0x0e, 0xfd,
  0xfd, 0xfa, 0xf1, 0x1f, 0x18, 0x09, 0x37, 0xdc, 0x1a, 0x2b, 0x07, 0xfb,
  0xeb, 0x12, 0x39, 0x0e, 0x23, 0xe0, 0x38, 0xe4, 0x23, 0xfc, 0x00, 0x21,
  0xef, 0xd4, 0x46, 0x3a, 0x13, 0xf4, 0x05, 0xe4, 0xf3, 0x09, 0x18, 0x09,
  0xd9, 0xea, 0x52, 0x10, 0x1a, 0x15, 0x10, 0x08, 0x2c, 0x02, 0x04, 0x0a,
  0xf4, 0x0a, 0x25, 0x11, 0x60, 0xfc, 0x11, 0x06, 0x44, 0x2d, 0x55, 0x10,
  0x11, 0xba, 0x27, 0xf5, 0x1e, 0xb3, 0xfd, 0xf6, 0x70, 0xfa, 0x26, 0xfb,
  0x39, 0xf3, 0x07, 0x1c, 0x2e, 0xa9, 0x02, 0xf7, 0x6b, 0x2d, 0x26, 0x14,
  0x2c, 0xb9, 0x06, 0xbc, 0xfd, 0xa8, 0xd1, 0xdd, 0x0a, 0xfc, 0xf4, 0x27,
  0x0f, 0xbf, 0x11, 0xd9, 0x2e, 0xc7, 0xeb, 0xa2, 0x0f, 0xf6, 0x3c, 0x2a,
  0xf3, 0x02, 0x0b, 0xc9, 0xdb, 0xfc, 0xc3, 0xd7, 0xd8, 0x0f, 0xc6, 0xf9,
  0x93, 0xe6, 0x26, 0xd6, 0xb5, 0x1d, 0xbb, 0xdb, 0xe8, 0xd5, 0xd2, 0xac,
  0xd2, 0x05, 0x06, 0x01, 0xf5, 0x10, 0x06, 0xc4, 0xcb, 0x1c, 0x12, 0xdf,
  0x26, 0xee, 0xf8, 0xe1, 0xf3, 0x03, 0xef, 0x03, 0x19, 0xed, 0xf6, 0xf9,
  0xf3, 0x30, 0xc9, 0xdb, 0x7f, 0x12, 0x05, 0xc9, 0x0b, 0xde, 0x32, 0x16,
  0x0e, 0xce, 0xe3, 0x0b, 0xe8, 0xe7, 0x03, 0xd1, 0xda, 0xd4, 0x27, 0x0b,
  0x12, 0xef, 0xdc, 0x1e, 0xc2, 0xf6, 0xe9, 0x22, 0x0b, 0x2b, 0x2e, 0xf6,
  0xf1, 0x04, 0xff, 0xc7, 0xd6, 0x2d, 0xcd, 0xf8, 0x08, 0x09, 0x13, 0xc5,
  0x0d, 0xed, 0xda, 0xdd, 0x11, 0x15, 0xe8, 0x01, 0xcd, 0x1a, 0x10, 0xeb,
  0x01, 0x20, 0xfb, 0xd2, 0x3b, 0xf6, 0x09, 0xee, 0xf1, 0x02, 0x56, 0x01,
  0x1f, 0xcc, 0x1e, 0xed, 0x09, 0xed, 0xef, 0x00, 0xda, 0x09, 0xe2, 0x06,
  0xe6, 0x01, 0xf8, 0xf3, 0xfb, 0xef, 0xe3, 0x17, 0xdd, 0xfa, 0x25, 0xe0,
  0xce, 0xfa, 0xcd, 0xe7, 0x09, 0xfc, 0xfa, 0x05, 0xf7, 0x15, 0x0a, 0x23,
  0x0b, 0xe6, 0xe2, 0x00, 0xe5, 0xfe, 0x14, 0x03, 0xff, 0x08, 0xeb, 0xf6,
  0xde, 0x00, 0xf4, 0xcb, 0x33, 0x11, 0x00, 0xfd, 0xf8, 0x00, 0x51, 0xfe,
  0xfa, 0x04, 0x27, 0x24, 0x32, 0xf2, 0x1c, 0x05, 0x06, 0x16, 0x1c, 0xee,
  0x1e, 0xfb, 0x2c, 0xf1, 0xcb, 0xf5, 0xce, 0x04, 0x11, 0x18, 0xfe, 0x0d,
  0xfc, 0xe5, 0x0e, 0xfd, 0x07, 0x16, 0xdd, 0xbf, 0x25, 0x26, 0x2e, 0x16,
  0x07, 0xd0, 0x4f, 0x1c, 0xf0, 0xfe, 0xe8, 0x01, 0xff, 0x19, 0xe0, 0x20,
  0x22, 0x25, 0x45, 0x07, 0x13, 0xf2, 0xe9, 0x06, 0xf9, 0x2d, 0x07, 0x2e,
  0x28, 0x30, 0xf1, 0xdb, 0x20, 0xea, 0xff, 0xff, 0xe8, 0x25, 0x30, 0x16,
  0xfe, 0x27, 0xfe, 0xf4, 0xfc, 0x3b, 0xe8, 0x1f, 0xfa, 0x20, 0xe9, 0x15,
  0xcf, 0xfb, 0x06, 0x11, 0x20, 0xdd, 0x36, 0x1e, 0xe2, 0x0e, 0x1a, 0x10,
  0xe6, 0x21, 0x02, 0x0d, 0x0e, 0x0a, 0x25, 0xde, 0x21, 0x2b, 0xe5, 0x16,
  0xd9, 0x05, 0x0b, 0x0e, 0x16, 0x28, 0xb7, 0xea, 0x0e, 0x05, 0xda, 0xe6,
  0xd2, 0xc7, 0xd5, 0xc9, 0xeb, 0xd2, 0xc0, 0xa9, 0x3a, 0xd9, 0x09, 0xf0,
  0xdc, 0xcb, 0xe1, 0xd8, 0x7f, 0xe5, 0xb9, 0xe5, 0x47, 0xd0, 0x57, 0x59,
  0x4c, 0xc1, 0xe4, 0xe3, 0x43, 0x0f, 0xab, 0xe6, 0xe3, 0xad, 0xf9, 0x29,
  0x1e, 0x30, 0xda, 0xc7, 0xc1, 0x49, 0x12, 0xf8, 0xb9, 0xf3, 0xfc, 0xf7,
  0xeb, 0x7b, 0xd0, 0x11, 0xf0, 0x0a, 0xa2, 0xc5, 0x03, 0xed, 0xb4, 0xe9,
  0xf0, 0xf0, 0x08, 0xaa, 0x3d, 0x00, 0xa4, 0xfe, 0x0d, 0x08, 0xf9, 0xe6,
  0xec, 0x1a, 0xfc, 0xc6, 0x61, 0xf2, 0xd3, 0xdc, 0x18, 0xe3, 0x16, 0x25,
  0x29, 0xf9, 0x06, 0xb3, 0x26, 0x20, 0x9a, 0xa3, 0x21, 0x35, 0x09, 0x13,
  0x03, 0x4e, 0x33, 0x91, 0x09, 0x5b, 0xa8, 0x07, 0xf6, 0x25, 0x0e, 0xf1,
  0xf1, 0x3d, 0x00, 0xdd, 0x98, 0x1e, 0xc2, 0x11, 0xf3, 0xc2, 0xae, 0xe3,
  0xd1, 0x11, 0xd7, 0x9a, 0xa8, 0xf8, 0x09, 0x35, 0x4c, 0xfe, 0xe3, 0xe2,
  0x01, 0xea, 0x05, 0xab, 0xfc, 0xfd, 0x0b, 0x10, 0x2c, 0x21, 0x20, 0x36,
  0x2a, 0xb7, 0xfe, 0xa4, 0x03, 0xc9, 0x10, 0xbf, 0xda, 0x3c, 0xf8, 0x39,
  0x19, 0x1d, 0x64, 0xc9, 0xb2, 0x48, 0xc1, 0xff, 0xd9, 0x2d, 0xc0, 0x1c,
  0xdc, 0x50, 0x08, 0xd9, 0xfb, 0x19, 0xa3, 0xe8, 0x05, 0xb4, 0xc0, 0x02,
  0xe4, 0xd4, 0x06, 0xa4, 0x15, 0x0a, 0xae, 0xc7, 0x14, 0x1b, 0xed, 0xf3,
  0x18, 0x32, 0x00, 0xc5, 0x56, 0xec, 0xe5, 0x98, 0x17, 0x4b, 0x2b, 0xff,
  0x39, 0xcb, 0x01, 0x07, 0x37, 0xff, 0xdc, 0xc0, 0xdb, 0x4d, 0x0e, 0x39,
  0x03, 0x0f, 0x13, 0x00, 0xe7, 0xe9, 0xff, 0xfa, 0xcf, 0x07, 0x24, 0x07,
  0xd4, 0xe3, 0xef, 0xf5, 0x0c, 0xe5, 0xd9, 0x3a, 0xd1, 0xe4, 0x28, 0x11,
  0xc5, 0x0e, 0x93, 0x10, 0xf2, 0x1c, 0xe2, 0x0b, 0x1f, 0xc2, 0xd9, 0x00,
  0xe9, 0x01, 0x2d, 0x04, 0x12, 0xfa, 0x1c, 0x96, 0x1d, 0xf9, 0x39, 0x19,
  0xc7, 0xf0, 0x0d, 0x23, 0xec, 0x47, 0x2e, 0xb4, 0x04, 0x05, 0xb5, 0xbb,
  0xdc, 0x19, 0xfd, 0x18, 0xc2, 0x15, 0xc1, 0xd6, 0x08, 0xe0, 0xd0, 0xcc,
  0xc8, 0x2e, 0x07, 0xb4, 0xc6, 0x25, 0x1f, 0x38, 0x1e, 0x22, 0x29, 0xcf,
  0xff, 0xf0, 0x02, 0x19, 0xbe, 0xf9, 0x2b, 0x3a, 0x0a, 0x1b, 0x15, 0x2d,
  0x16, 0xf5, 0x47, 0x14, 0x20, 0xea, 0x2f, 0x58, 0x2f, 0x4a, 0x0d, 0x50,
  0xe7, 0xd7, 0x20, 0x3a, 0x11, 0xb9, 0x27, 0xf5, 0x46, 0xf5, 0x26, 0x01,
  0x2f, 0xb9, 0xf5, 0xda, 0xef, 0xb2, 0x16, 0x08, 0xfa, 0x43, 0xe2, 0x3b,
  0x38, 0xb4, 0xde, 0x44, 0x35, 0xf1, 0x16, 0x3f, 0x01, 0x63, 0x02, 0x15,
  0x2c, 0xcf, 0x3a, 0x23, 0x02, 0xed, 0x25, 0x51, 0xe6, 0x43, 0x04, 0x10,
  0x0b, 0xde, 0x11, 0xd9, 0x0b, 0xc1, 0xf3, 0x58, 0x35, 0x0e, 0x56, 0x04,
  0x08, 0xbe, 0x24, 0xf0, 0x1e, 0xc3, 0x0e, 0x2e, 0x34, 0x18, 0x27, 0x33,
  0xf2, 0xe3, 0x0b, 0x56, 0x20, 0xe9, 0x2b, 0x20, 0xc1, 0xff, 0x1d, 0xec,
  0x36, 0x05, 0x22, 0x75, 0xec, 0xa4, 0x1d, 0x43, 0x2e, 0x49, 0x25, 0xd4,
  0xf6, 0x18, 0x12, 0xd4, 0xea, 0xd6, 0xbc, 0x3d, 0x4a, 0x03, 0xd6, 0x29,
  0xf1, 0xdb, 0x05, 0x06, 0xcf, 0xb1, 0xb6, 0x1a, 0xff, 0xe2, 0x08, 0x14,
  0x09, 0xa0, 0xcf, 0xab, 0x53, 0xf4, 0xc9, 0x58, 0xf4, 0x0c, 0x2f, 0xf4,
  0x35, 0xec, 0xea, 0xf1, 0x65, 0x81, 0xfb, 0x3b, 0xc7, 0x11, 0x07, 0x3b,
  0x35, 0xd6, 0xef, 0x39, 0xd6, 0xfd, 0x3b, 0x31, 0x0b, 0x36, 0x0a, 0xf3,
  0x22, 0x2d, 0x2e, 0xf3, 0xe0, 0xfb, 0x08, 0x19, 0x1b, 0x03, 0x01, 0xcb,
  0xc3, 0x2a, 0x1e, 0x26, 0x34, 0x1d, 0x56, 0x4c, 0x27, 0x0a, 0x12, 0x14,
  0x23, 0x29, 0xed, 0x2c, 0x15, 0xf7, 0xe3, 0xec, 0xf4, 0xea, 0x1c, 0xe5,
  0xd3, 0xea, 0x3c, 0xba, 0x28, 0xbc, 0x14, 0xf3, 0x0d, 0x1f, 0xf4, 0xe5,
  0x22, 0xc7, 0x04, 0xbc, 0xed, 0xc7, 0x27, 0x3f, 0xd8, 0x05, 0xd1, 0xf3,
  0xcd, 0xee, 0x13, 0xfc, 0x01, 0xc2, 0x19, 0x56, 0xfc, 0x16, 0x0f, 0xf9,
  0x12, 0x00, 0x0b, 0xe9, 0x46, 0xbf, 0x60, 0xf2, 0xfe, 0x0d, 0x46, 0x14,
  0x16, 0xc2, 0x34, 0x13, 0xf0, 0xc5, 0x21, 0xe0, 0x18, 0x0d, 0xf9, 0x22,
  0x2f, 0xd5, 0xf2, 0x0e, 0x23, 0x96, 0x2f, 0xf5, 0xef, 0x2a, 0x10, 0xd7,
  0x52, 0x90, 0x1f, 0xed, 0xb2, 0xfd, 0xff, 0xff, 0x04, 0x00, 0x00, 0x00,
  0x30, 0x00, 0x00, 0x00, 0x46, 0xe8, 0x00, 0x00, 0x25, 0x8d, 0xff, 0xff,
  0x87, 0x0d, 0xfe, 0xff, 0x41, 0xe2, 0xff, 0xff, 0x58, 0xf6, 0xff, 0xff,
  0xe7, 0xea, 0xff, 0xff, 0x3c, 0x30, 0x01, 0x00, 0xfd, 0xdb, 0x00, 0x00,
  0x70, 0x69, 0x00, 0x00, 0x52, 0x77, 0xff, 0xff, 0xa9, 0xe3, 0xff, 0xff,
  0x06, 0xe5, 0xfe, 0xff, 0xee, 0xfd, 0xff, 0xff, 0x04, 0x00, 0x00, 0x00,
  0x2c, 0x01, 0x00, 0x00, 0xda, 0xe8, 0x1f, 0xa4, 0x81, 0x0c, 0x07, 0x00,
  0x1d, 0x00, 0x0b, 0xed, 0x05, 0xfe, 0xfc, 0xbc, 0xd2, 0xeb, 0xc6, 0xd9,
  0xb1, 0xf7, 0x00, 0x26, 0x28, 0x4b, 0x1c, 0x38, 0x46, 0x27, 0xbe, 0xec,
  0x1c, 0xb7, 0xbd, 0x22, 0xf4, 0x11, 0x81, 0x3f, 0x11, 0xdf, 0x10, 0x02,
  0x1a, 0x20, 0x37, 0x1d, 0xe6, 0x60, 0x2a, 0x41, 0xd1, 0xe4, 0xfa, 0x66,
  0x3f, 0x56, 0x6e, 0x0c, 0x4e, 0x56, 0x58, 0xcf, 0x28, 0x70, 0x7f, 0x6c,
  0x6e, 0x00, 0xcc, 0xab, 0xc6, 0xc1, 0xf3, 0xcd, 0xe1, 0x1b, 0x3b, 0x40,
  0xe8, 0xf0, 0x3e, 0x4d, 0x1b, 0xbb, 0xc2, 0x12, 0x2d, 0x6b, 0xf6, 0xcf,
  0xe6, 0xf6, 0x7f, 0xc7, 0x9b, 0x97, 0xea, 0x5a, 0xa8, 0xd4, 0xf1, 0xc0,
  0xfb, 0xdc, 0xe3, 0xbf, 0x18, 0x05, 0xc0, 0x9e, 0x0d, 0xee, 0x7f, 0xb5,
  0xc9, 0x37, 0x52, 0x3e, 0x02, 0x5d, 0x1c, 0x4c, 0x6f, 0x1f, 0xb0, 0x9b,
  0x97, 0xa8, 0x26, 0x21, 0x16, 0xc0, 0xd0, 0x1d, 0x6a, 0x11, 0x2a, 0x18,
  0x2c, 0x22, 0x7f, 0x53, 0x32, 0xbe, 0xf2, 0xd9, 0x00, 0x17, 0xf7, 0xf6,
  0xda, 0xff, 0xf3, 0xf7, 0xcc, 0xfd, 0x94, 0xe9, 0xce, 0x12, 0xd5, 0xf9,
  0x2a, 0x81, 0xcd, 0xc0, 0xde, 0xfb, 0xd0, 0xf3, 0xdf, 0x52, 0x03, 0xd5,
  0x09, 0x04, 0xbe, 0x3d, 0xdc, 0x07, 0xdc, 0x81, 0xf0, 0x1f, 0xd6, 0x00,
  0x05, 0xab, 0x10, 0x15, 0xa8, 0xf8, 0xdb, 0xe2, 0x3e, 0x4c, 0xad, 0xf6,
  0xc4, 0xfd, 0xb2, 0x99, 0xd5, 0x06, 0xe5, 0xd5, 0xed, 0xcb, 0x02, 0x5d,
  0xdf, 0xc8, 0xca, 0x02, 0x07, 0xfc, 0xd1, 0xf5, 0x17, 0x54, 0x7f, 0x59,
  0x26, 0x1f, 0x05, 0xa9, 0xd4, 0x4b, 0x5f, 0x43, 0x81, 0xcc, 0x42, 0x4b,
  0xfb, 0xc8, 0x19, 0x26, 0xf8, 0xf2, 0xd7, 0x13, 0x16, 0x66, 0xb4, 0x38,
  0x4a, 0x5a, 0xf5, 0x00, 0xc5, 0xed, 0xc8, 0x93, 0xce, 0x89, 0xe2, 0x99,
  0xc0, 0xeb, 0xc5, 0xd7, 0x0a, 0x04, 0xe1, 0x30, 0x6a, 0x64, 0x60, 0x63,
  0x7f, 0x76, 0x52, 0x08, 0xe6, 0x92, 0x46, 0xb9, 0x45, 0x42, 0x04, 0x20,
  0x6b, 0xdd, 0x10, 0x36, 0xe4, 0xf8, 0x32, 0x3c, 0x4c, 0xf9, 0x0e, 0xf8,
  0xd4, 0xf7, 0x23, 0x7f, 0x26, 0xff, 0xff, 0xff, 0x04, 0x00, 0x00, 0x00,
  0x08, 0x00, 0x00, 0x00, 0xff, 0xff, 0xff, 0xff, 0x0f, 0x00, 0x00, 0x00,
  0xd0, 0xeb, 0xff, 0xff, 0xd4, 0xeb, 0xff, 0xff, 0x0f, 0x00, 0x00, 0x00,
  0x4d, 0x4c, 0x49, 0x52, 0x20, 0x43, 0x6f, 0x6e, 0x76, 0x65, 0x72, 0x74,
  0x65, 0x64, 0x2e, 0x00, 0x01, 0x00, 0x00, 0x00, 0x14, 0x00, 0x00, 0x00,
  0x00, 0x00, 0x0e, 0x00, 0x18, 0x00, 0x14, 0x00, 0x10, 0x00, 0x0c, 0x00,
  0x08, 0x00, 0x04, 0x00, 0x0e, 0x00, 0x00, 0x00, 0x14, 0x00, 0x00, 0x00,
  0x1c, 0x00, 0x00, 0x00, 0x1c, 0x03, 0x00, 0x00, 0x20, 0x03, 0x00, 0x00,
  0x24, 0x03, 0x00, 0x00, 0x04, 0x00, 0x00, 0x00, 0x6d, 0x61, 0x69, 0x6e,
  0x00, 0x00, 0x00, 0x00, 0x0c, 0x00, 0x00, 0x00, 0xe4, 0x02, 0x00, 0x00,
  0x88, 0x02, 0x00, 0x00, 0x24, 0x02, 0x00, 0x00, 0xe0, 0x01, 0x00, 0x00,
  0x9c, 0x01, 0x00, 0x00, 0x58, 0x01, 0x00, 0x00, 0x14, 0x01, 0x00, 0x00,
  0xec, 0x00, 0x00, 0x00, 0x9c, 0x00, 0x00, 0x00, 0x64, 0x00, 0x00, 0x00,
  0x28, 0x00, 0x00, 0x00, 0x04, 0x00, 0x00, 0x00, 0x32, 0xff, 0xff, 0xff,
  0x0c, 0x00, 0x00, 0x00, 0x10, 0x00, 0x00, 0x00, 0x06, 0x00, 0x00, 0x00,
  0x01, 0x00, 0x00, 0x00, 0x17, 0x00, 0x00, 0x00, 0x01, 0x00, 0x00, 0x00,
  0x16, 0x00, 0x00, 0x00, 0xd2, 0xfd, 0xff, 0xff, 0x1c, 0x00, 0x00, 0x00,
  0x00, 0x00, 0x00, 0x09, 0x1c, 0x00, 0x00, 0x00, 0x20, 0x00, 0x00, 0x00,
  0x05, 0x00, 0x00, 0x00, 0x00, 0x00, 0x06, 0x00, 0x08, 0x00, 0x04, 0x00,
  0x06, 0x00, 0x00, 0x00, 0x00, 0x00, 0x80, 0x3f, 0x01, 0x00, 0x00, 0x00,
  0x16, 0x00, 0x00, 0x00, 0x01, 0x00, 0x00, 0x00, 0x15, 0x00, 0x00, 0x00,
  0x0a, 0xfe, 0xff, 0xff, 0x14, 0x00, 0x00, 0x00, 0x00, 0x00, 0x00, 0x08,
  0x10, 0x00, 0x00, 0x00, 0x14, 0x00, 0x00, 0x00, 0x04, 0x00, 0x00, 0x00,
  0xcc, 0xec, 0xff, 0xff, 0x01, 0x00, 0x00, 0x00, 0x15, 0x00, 0x00, 0x00,
  0x03, 0x00, 0x00, 0x00, 0x14, 0x00, 0x00, 0x00, 0x0a, 0x00, 0x00, 0x00,
  0x0b, 0x00, 0x00, 0x00, 0x3e, 0xfe, 0xff, 0xff, 0x1c, 0x00, 0x00, 0x00,
  0x00, 0x00, 0x00, 0x08, 0x1c, 0x00, 0x00, 0x00, 0x20, 0x00, 0x00, 0x00,
  0x04, 0x00, 0x00, 0x00, 0x00, 0x00, 0x06, 0x00, 0x08, 0x00, 0x07, 0x00,
  0x06, 0x00, 0x00, 0x00, 0x00, 0x00, 0x00, 0x01, 0x01, 0x00, 0x00, 0x00,
  0x14, 0x00, 0x00, 0x00, 0x03, 0x00, 0x00, 0x00, 0x13, 0x00, 0x00, 0x00,
  0x08, 0x00, 0x00, 0x00, 0x09, 0x00, 0x00, 0x00, 0x00, 0x00, 0x0a, 0x00,
  0x10, 0x00, 0x0c, 0x00, 0x08, 0x00, 0x04, 0x00, 0x0a, 0x00, 0x00, 0x00,
  0x0c, 0x00, 0x00, 0x00, 0x10, 0x00, 0x00, 0x00, 0x03, 0x00, 0x00, 0x00,
  0x01, 0x00, 0x00, 0x00, 0x13, 0x00, 0x00, 0x00, 0x02, 0x00, 0x00, 0x00,
  0x12, 0x00, 0x00, 0x00, 0x01, 0x00, 0x00, 0x00, 0xae, 0xfe, 0xff, 0xff,
  0x14, 0x00, 0x00, 0x00, 0x00, 0x00, 0x00, 0x05, 0x24, 0x00, 0x00, 0x00,
  0x28, 0x00, 0x00, 0x00, 0x02, 0x00, 0x00, 0x00, 0xfe, 0xfe, 0xff, 0xff,
  0x02, 0x00, 0x00, 0x00, 0x02, 0x00, 0x00, 0x00, 0x02, 0x00, 0x00, 0x00,
  0x02, 0x00, 0x00, 0x00, 0x00, 0x00, 0x00, 0x01, 0x01, 0x00, 0x00, 0x00,
  0x12, 0x00, 0x00, 0x00, 0x01, 0x00, 0x00, 0x00, 0x11, 0x00, 0x00, 0x00,
  0xee, 0xfe, 0xff, 0xff, 0x14, 0x00, 0x00, 0x00, 0x00, 0x00, 0x00, 0x01,
  0x1c, 0x00, 0x00, 0x00, 0x20, 0x00, 0x00, 0x00, 0x01, 0x00, 0x00, 0x00,
  0xe0, 0xfe, 0xff, 0xff, 0x00, 0x00, 0x00, 0x01, 0x01, 0x00, 0x00, 0x00,
  0x01, 0x00, 0x00, 0x00, 0x01, 0x00, 0x00, 0x00, 0x11, 0x00, 0x00, 0x00,
  0x03, 0x00, 0x00, 0x00, 0x10, 0x00, 0x00, 0x00, 0x06, 0x00, 0x00, 0x00,
  0x07, 0x00, 0x00, 0x00, 0x2e, 0xff, 0xff, 0xff, 0x14, 0x00, 0x00, 0x00,
  0x00, 0x00, 0x00, 0x05, 0x24, 0x00, 0x00, 0x00, 0x28, 0x00, 0x00, 0x00,
  0x02, 0x00, 0x00, 0x00, 0x7e, 0xff, 0xff, 0xff, 0x02, 0x00, 0x00, 0x00,
  0x02, 0x00, 0x00, 0x00, 0x02, 0x00, 0x00, 0x00, 0x02, 0x00, 0x00, 0x00,
  0x00, 0x00, 0x00, 0x01, 0x01, 0x00, 0x00, 0x00, 0x10, 0x00, 0x00, 0x00,
  0x01, 0x00, 0x00, 0x00, 0x0f, 0x00, 0x00, 0x00, 0x6e, 0xff, 0xff, 0xff,
  0x14, 0x00, 0x00, 0x00, 0x00, 0x00, 0x00, 0x01, 0x1c, 0x00, 0x00, 0x00,
  0x20, 0x00, 0x00, 0x00, 0x01, 0x00, 0x00, 0x00, 0x60, 0xff, 0xff, 0xff,
  0x00, 0x00, 0x00, 0x01, 0x03, 0x00, 0x00, 0x00, 0x03, 0x00, 0x00, 0x00,
  0x01, 0x00, 0x00, 0x00, 0x0f, 0x00, 0x00, 0x00, 0x03, 0x00, 0x00, 0x00,
  0x0e, 0x00, 0x00, 0x00, 0x04, 0x00, 0x00, 0x00, 0x05, 0x00, 0x00, 0x00,
  0xae, 0xff, 0xff, 0xff, 0x24, 0x00, 0x00, 0x00, 0x00, 0x00, 0x00, 0x05,
  0x34, 0x00, 0x00, 0x00, 0x38, 0x00, 0x00, 0x00, 0x02, 0x00, 0x00, 0x00,
  0x00, 0x00, 0x0e, 0x00, 0x18, 0x00, 0x17, 0x00, 0x10, 0x00, 0x0c, 0x00,
  0x08, 0x00, 0x04, 0x00, 0x0e, 0x00, 0x00, 0x00, 0x02, 0x00, 0x00, 0x00,
  0x02, 0x00, 0x00, 0x00, 0x02, 0x00, 0x00, 0x00, 0x02, 0x00, 0x00, 0x00,
  0x00, 0x00, 0x00, 0x01, 0x01, 0x00, 0x00, 0x00, 0x0e, 0x00, 0x00, 0x00,
  0x01, 0x00, 0x00, 0x00, 0x0d, 0x00, 0x00, 0x00, 0x00, 0x00, 0x0e, 0x00,
  0x18, 0x00, 0x14, 0x00, 0x10, 0x00, 0x0c, 0x00, 0x0b, 0x00, 0x04, 0x00,
  0x0e, 0x00, 0x00, 0x00, 0x20, 0x00, 0x00, 0x00, 0x00, 0x00, 0x00, 0x01,
  0x28, 0x00, 0x00, 0x00, 0x2c, 0x00, 0x00, 0x00, 0x01, 0x00, 0x00, 0x00,
  0x0c, 0x00, 0x10, 0x00, 0x00, 0x00, 0x0c, 0x00, 0x08, 0x00, 0x07, 0x00,
  0x0c, 0x00, 0x00, 0x00, 0x00, 0x00, 0x00, 0x01, 0x03, 0x00, 0x00, 0x00,
  0x03, 0x00, 0x00, 0x00, 0x01, 0x00, 0x00, 0x00, 0x0d, 0x00, 0x00, 0x00,
  0x03, 0x00, 0x00, 0x00, 0x0c, 0x00, 0x00, 0x00, 0x02, 0x00, 0x00, 0x00,
  0x03, 0x00, 0x00, 0x00, 0x00, 0x00, 0x0a, 0x00, 0x0c, 0x00, 0x00, 0x00,
  0x08, 0x00, 0x04, 0x00, 0x0a, 0x00, 0x00, 0x00, 0x08, 0x00, 0x00, 0x00,
  0x0c, 0x00, 0x00, 0x00, 0x01, 0x00, 0x00, 0x00, 0x0c, 0x00, 0x00, 0x00,
  0x01, 0x00, 0x00, 0x00, 0x00, 0x00, 0x00, 0x00, 0x01, 0x00, 0x00, 0x00,
  0x17, 0x00, 0x00, 0x00, 0x01, 0x00, 0x00, 0x00, 0x00, 0x00, 0x00, 0x00,
  0x18, 0x00, 0x00, 0x00, 0x94, 0x10, 0x00, 0x00, 0x40, 0x10, 0x00, 0x00,
  0xa0, 0x0e, 0x00, 0x00, 0x30, 0x0d, 0x00, 0x00, 0x3c, 0x0c, 0x00, 0x00,
  0x48, 0x0b, 0x00, 0x00, 0x34, 0x0a, 0x00, 0x00, 0x18, 0x09, 0x00, 0x00,
  0xb4, 0x08, 0x00, 0x00, 0x48, 0x08, 0x00, 0x00, 0xe4, 0x07, 0x00, 0x00,
  0x70, 0x07, 0x00, 0x00, 0xf4, 0x06, 0x00, 0x00, 0xc8, 0x05, 0x00, 0x00,
  0x3c, 0x05, 0x00, 0x00, 0x60, 0x04, 0x00, 0x00, 0xd4, 0x03, 0x00, 0x00,
  0xf8, 0x02, 0x00, 0x00, 0x6c, 0x02, 0x00, 0x00, 0xf8, 0x01, 0x00, 0x00,
  0x64, 0x01, 0x00, 0x00, 0xd8, 0x00, 0x00, 0x00, 0x5c, 0x00, 0x00, 0x00,
  0x04, 0x00, 0x00, 0x00, 0xe0, 0xef, 0xff, 0xff, 0x14, 0x00, 0x00, 0x00,
  0x1c, 0x00, 0x00, 0x00, 0x1c, 0x00, 0x00, 0x00, 0x18, 0x00, 0x00, 0x00,
  0x34, 0x00, 0x00, 0x00, 0x02, 0x00, 0x00, 0x00, 0xff, 0xff, 0xff, 0xff,
  0x03, 0x00, 0x00, 0x00, 0xc4, 0xef, 0xff, 0xff, 0x19, 0x00, 0x00, 0x00,
  0x53, 0x74, 0x61, 0x74, 0x65, 0x66, 0x75, 0x6c, 0x50, 0x61, 0x72, 0x74,
  0x69, 0x74, 0x69, 0x6f, 0x6e, 0x65, 0x64, 0x43, 0x61, 0x6c, 0x6c, 0x3a,
  0x30, 0x00, 0x00, 0x00, 0x02, 0x00, 0x00, 0x00, 0x01, 0x00, 0x00, 0x00,
  0x03, 0x00, 0x00, 0x00, 0xa4, 0xf9, 0xff, 0xff, 0x18, 0x00, 0x00, 0x00,
  0x20, 0x00, 0x00, 0x00, 0x40, 0x00, 0x00, 0x00, 0x17, 0x00, 0x00, 0x00,
  0x00, 0x00, 0x00, 0x09, 0x54, 0x00, 0x00, 0x00, 0x02, 0x00, 0x00, 0x00,
  0xff, 0xff, 0xff, 0xff, 0x03, 0x00, 0x00, 0x00, 0x1c, 0xf2, 0xff, 0xff,
  0x08, 0x00, 0x00, 0x00, 0x14, 0x00, 0x00, 0x00, 0x01, 0x00, 0x00, 0x00,
  0x80, 0xff, 0xff, 0xff, 0xff, 0xff, 0xff, 0xff, 0x00, 0x00, 0x00, 0x00,
  0x01, 0x00, 0x00, 0x00, 0x00, 0x00, 0x80, 0x3b, 0x1a, 0x00, 0x00, 0x00,
  0x53, 0x74, 0x61, 0x74, 0x65, 0x66, 0x75, 0x6c, 0x50, 0x61, 0x72, 0x74,
  0x69, 0x74, 0x69, 0x6f, 0x6e, 0x65, 0x64, 0x43, 0x61, 0x6c, 0x6c, 0x3a,
  0x30, 0x31, 0x00, 0x00, 0x02, 0x00, 0x00, 0x00, 0x01, 0x00, 0x00, 0x00,
  0x03, 0x00, 0x00, 0x00, 0x1c, 0xfa, 0xff, 0xff, 0x18, 0x00, 0x00, 0x00,
  0x20, 0x00, 0x00, 0x00, 0x40, 0x00, 0x00, 0x00, 0x16, 0x00, 0x00, 0x00,
  0x00, 0x00, 0x00, 0x09, 0x64, 0x00, 0x00, 0x00, 0x02, 0x00, 0x00, 0x00,
  0xff, 0xff, 0xff, 0xff, 0x03, 0x00, 0x00, 0x00, 0x94, 0xf2, 0xff, 0xff,
  0x08, 0x00, 0x00, 0x00, 0x14, 0x00, 0x00, 0x00, 0x01, 0x00, 0x00, 0x00,
  0x0b, 0x00, 0x00, 0x00, 0x00, 0x00, 0x00, 0x00, 0x00, 0x00, 0x00, 0x00,
  0x01, 0x00, 0x00, 0x00, 0xf1, 0xe6, 0x1d, 0x3e, 0x2a, 0x00, 0x00, 0x00,
  0x6d, 0x6f, 0x64, 0x65, 0x6c, 0x2f, 0x64, 0x65, 0x6e, 0x73, 0x65, 0x5f,
  0x31, 0x2f, 0x4d, 0x61, 0x74, 0x4d, 0x75, 0x6c, 0x3b, 0x6d, 0x6f, 0x64,
  0x65, 0x6c, 0x2f, 0x64, 0x65, 0x6e, 0x73, 0x65, 0x5f, 0x31, 0x2f, 0x42,
  0x69, 0x61, 0x73, 0x41, 0x64, 0x64, 0x00, 0x00, 0x02, 0x00, 0x00, 0x00,
  0x01, 0x00, 0x00, 0x00, 0x03, 0x00, 0x00, 0x00, 0xa4, 0xfa, 0xff, 0xff,
  0x18, 0x00, 0x00, 0x00, 0x20, 0x00, 0x00, 0x00, 0x3c, 0x00, 0x00, 0x00,
  0x15, 0x00, 0x00, 0x00, 0x00, 0x00, 0x00, 0x09, 0x6c, 0x00, 0x00, 0x00,
  0x02, 0x00, 0x00, 0x00, 0xff, 0xff, 0xff, 0xff, 0x09, 0x00, 0x00, 0x00,
  0x1c, 0xf3, 0xff, 0xff, 0x08, 0x00, 0x00, 0x00, 0x10, 0x00, 0x00, 0x00,
  0x01, 0x00, 0x00, 0x00, 0x80, 0xff, 0xff, 0xff, 0xff, 0xff, 0xff, 0xff,
  0x01, 0x00, 0x00, 0x00, 0x29, 0xd3, 0x49, 0x3d, 0x37, 0x00, 0x00, 0x00,
  0x6d, 0x6f, 0x64, 0x65, 0x6c, 0x2f, 0x64, 0x65, 0x6e, 0x73, 0x65, 0x2f,
  0x4d, 0x61, 0x74, 0x4d, 0x75, 0x6c, 0x3b, 0x6d, 0x6f, 0x64, 0x65, 0x6c,
  0x2f, 0x64, 0x65, 0x6e, 0x73, 0x65, 0x2f, 0x52, 0x65, 0x6c, 0x75, 0x3b,
  0x6d, 0x6f, 0x64, 0x65, 0x6c, 0x2f, 0x64, 0x65, 0x6e, 0x73, 0x65, 0x2f,
  0x42, 0x69, 0x61, 0x73, 0x41, 0x64, 0x64, 0x00, 0x02, 0x00, 0x00, 0x00,
  0x01, 0x00, 0x00, 0x00, 0x09, 0x00, 0x00, 0x00, 0x34, 0xfb, 0xff, 0xff,
  0x18, 0x00, 0x00, 0x00, 0x20, 0x00, 0x00, 0x00, 0x3c, 0x00, 0x00, 0x00,
  0x14, 0x00, 0x00, 0x00, 0x00, 0x00, 0x00, 0x09, 0x4c, 0x00, 0x00, 0x00,
  0x02, 0x00, 0x00, 0x00, 0xff, 0xff, 0xff, 0xff, 0x0f, 0x00, 0x00, 0x00,
  0xac, 0xf3, 0xff, 0xff, 0x08, 0x00, 0x00, 0x00, 0x10, 0x00, 0x00, 0x00,
  0x01, 0x00, 0x00, 0x00, 0x80, 0xff, 0xff, 0xff, 0xff, 0xff, 0xff, 0xff,
  0x01, 0x00, 0x00, 0x00, 0xd1, 0x0d, 0x06, 0x3d, 0x15, 0x00, 0x00, 0x00,
  0x6d, 0x6f, 0x64, 0x65, 0x6c, 0x2f, 0x66, 0x6c, 0x61, 0x74, 0x74, 0x65,
  0x6e, 0x2f, 0x52, 0x65, 0x73, 0x68, 0x61, 0x70, 0x65, 0x00, 0x00, 0x00,
  0x02, 0x00, 0x00, 0x00, 0x01, 0x00, 0x00, 0x00, 0x0f, 0x00, 0x00, 0x00,
  0xa4, 0xfb, 0xff, 0xff, 0x18, 0x00, 0x00, 0x00, 0x28, 0x00, 0x00, 0x00,
  0x44, 0x00, 0x00, 0x00, 0x13, 0x00, 0x00, 0x00, 0x00, 0x00, 0x00, 0x09,
  0x5c, 0x00, 0x00, 0x00, 0x04, 0x00, 0x00, 0x00, 0xff, 0xff, 0xff, 0xff,
  0x01, 0x00, 0x00, 0x00, 0x01, 0x00, 0x00, 0x00, 0x0f, 0x00, 0x00, 0x00,
  0x24, 0xf4, 0xff, 0xff, 0x08, 0x00, 0x00, 0x00, 0x10, 0x00, 0x00, 0x00,
  0x01, 0x00, 0x00, 0x00, 0x80, 0xff, 0xff, 0xff, 0xff, 0xff, 0xff, 0xff,
  0x01, 0x00, 0x00, 0x00, 0xd1, 0x0d, 0x06, 0x3d, 0x1d, 0x00, 0x00, 0x00,
  0x6d, 0x6f, 0x64, 0x65, 0x6c, 0x2f, 0x6d, 0x61, 0x78, 0x5f, 0x70, 0x6f,
  0x6f, 0x6c, 0x69, 0x6e, 0x67, 0x32, 0x64, 0x5f, 0x32, 0x2f, 0x4d, 0x61,
  0x78, 0x50, 0x6f, 0x6f, 0x6c, 0x00, 0x00, 0x00, 0x04, 0x00, 0x00, 0x00,
  0x01, 0x00, 0x00, 0x00, 0x01, 0x00, 0x00, 0x00, 0x01, 0x00, 0x00, 0x00,
  0x0f, 0x00, 0x00, 0x00, 0x2c, 0xfc, 0xff, 0xff, 0x18, 0x00, 0x00, 0x00,
  0x28, 0x00, 0x00, 0x00, 0x48, 0x00, 0x00, 0x00, 0x12, 0x00, 0x00, 0x00,
  0x00, 0x00, 0x00, 0x09, 0xac, 0x00, 0x00, 0x00, 0x04, 0x00, 0x00, 0x00,
  0xff, 0xff, 0xff, 0xff, 0x03, 0x00, 0x00, 0x00, 0x03, 0x00, 0x00, 0x00,
  0x0f, 0x00, 0x00, 0x00, 0xac, 0xf4, 0xff, 0xff, 0x08, 0x00, 0x00, 0x00,
  0x14, 0x00, 0x00, 0x00, 0x01, 0x00, 0x00, 0x00, 0x80, 0xff, 0xff, 0xff,
  0xff, 0xff, 0xff, 0xff, 0x00, 0x00, 0x00, 0x00, 0x01, 0x00, 0x00, 0x00,
  0xd1, 0x0d, 0x06, 0x3d, 0x6a, 0x00, 0x00, 0x00, 0x6d, 0x6f, 0x64, 0x65,
  0x6c, 0x2f, 0x61, 0x63, 0x74, 0x69, 0x76, 0x61, 0x74, 0x69, 0x6f, 0x6e,
  0x5f, 0x32, 0x2f, 0x52, 0x65, 0x6c, 0x75, 0x3b, 0x6d, 0x6f, 0x64, 0x65,
  0x6c, 0x2f, 0x63, 0x6f, 0x6e, 0x76, 0x32, 0x64, 0x5f, 0x32, 0x2f, 0x42,
  0x69, 0x61, 0x73, 0x41, 0x64, 0x64, 0x3b, 0x6d, 0x6f, 0x64, 0x65, 0x6c,
  0x2f, 0x63, 0x6f, 0x6e, 0x76, 0x32, 0x64, 0x5f, 0x32, 0x2f, 0x43, 0x6f,
  0x6e, 0x76, 0x32, 0x44, 0x3b, 0x6d, 0x6f, 0x64, 0x65, 0x6c, 0x2f, 0x63,
  0x6f, 0x6e, 0x76, 0x32, 0x64, 0x5f, 0x32, 0x2f, 0x42, 0x69, 0x61, 0x73,
  0x41, 0x64, 0x64, 0x2f, 0x52, 0x65, 0x61, 0x64, 0x56, 0x61, 0x72, 0x69,
  0x61, 0x62, 0x6c, 0x65, 0x4f, 0x70, 0x00, 0x00, 0x04, 0x00, 0x00, 0x00,
  0x01, 0x00, 0x00, 0x00, 0x03, 0x00, 0x00, 0x00, 0x03, 0x00, 0x00, 0x00,
  0x0f, 0x00, 0x00, 0x00, 0x04, 0xfd, 0xff, 0xff, 0x18, 0x00, 0x00, 0x00,
  0x28, 0x00, 0x00, 0x00, 0x44, 0x00, 0x00, 0x00, 0x11, 0x00, 0x00, 0x00,
  0x00, 0x00, 0x00, 0x09, 0x5c, 0x00, 0x00, 0x00, 0x04, 0x00, 0x00, 0x00,
  0xff, 0xff, 0xff, 0xff, 0x03, 0x00, 0x00, 0x00, 0x03, 0x00, 0x00, 0x00,
  0x0c, 0x00, 0x00, 0x00, 0x84, 0xf5, 0xff, 0xff, 0x08, 0x00, 0x00, 0x00,
  0x10, 0x00, 0x00, 0x00, 0x01, 0x00, 0x00, 0x00, 0x80, 0xff, 0xff, 0xff,
  0xff, 0xff, 0xff, 0xff, 0x01, 0x00, 0x00, 0x00, 0x4e, 0x07, 0xe3, 0x3c,
  0x1d, 0x00, 0x00, 0x00, 0x6d, 0x6f, 0x64, 0x65, 0x6c, 0x2f, 0x6d, 0x61,
  0x78, 0x5f, 0x70, 0x6f, 0x6f, 0x6c, 0x69, 0x6e, 0x67, 0x32, 0x64, 0x5f,
  0x31, 0x2f, 0x4d, 0x61, 0x78, 0x50, 0x6f, 0x6f, 0x6c, 0x00, 0x00, 0x00,
  0x04, 0x00, 0x00, 0x00, 0x01, 0x00, 0x00, 0x00, 0x03, 0x00, 0x00, 0x00,
  0x03, 0x00, 0x00, 0x00, 0x0c, 0x00, 0x00, 0x00, 0x8c, 0xfd, 0xff, 0xff,
  0x18, 0x00, 0x00, 0x00, 0x28, 0x00, 0x00, 0x00, 0x48, 0x00, 0x00, 0x00,
  0x10, 0x00, 0x00, 0x00, 0x00, 0x00, 0x00, 0x09, 0xac, 0x00, 0x00, 0x00,
  0x04, 0x00, 0x00, 0x00, 0xff, 0xff, 0xff, 0xff, 0x06, 0x00, 0x00, 0x00,
  0x06, 0x00, 0x00, 0x00, 0x0c, 0x00, 0x00, 0x00, 0x0c, 0xf6, 0xff, 0xff,
  0x08, 0x00, 0x00, 0x00, 0x14, 0x00, 0x00, 0x00, 0x01, 0x00, 0x00, 0x00,
  0x80, 0xff, 0xff, 0xff, 0xff, 0xff, 0xff, 0xff, 0x00, 0x00, 0x00, 0x00,
  0x01, 0x00, 0x00, 0x00, 0x4e, 0x07, 0xe3, 0x3c, 0x6a, 0x00, 0x00, 0x00,
  0x6d, 0x6f, 0x64, 0x65, 0x6c, 0x2f, 0x61, 0x63, 0x74, 0x69, 0x76, 0x61,
  0x74, 0x69, 0x6f, 0x6e, 0x5f, 0x31, 0x2f, 0x52, 0x65, 0x6c, 0x75, 0x3b,
  0x6d, 0x6f, 0x64, 0x65, 0x6c, 0x2f, 0x63, 0x6f, 0x6e, 0x76, 0x32, 0x64,
  0x5f, 0x31, 0x2f, 0x42, 0x69, 0x61, 0x73, 0x41, 0x64, 0x64, 0x3b, 0x6d,
  0x6f, 0x64, 0x65, 0x6c, 0x2f, 0x63, 0x6f, 0x6e, 0x76, 0x32, 0x64, 0x5f,
  0x31, 0x2f, 0x43, 0x6f, 0x6e, 0x76, 0x32, 0x44, 0x3b, 0x6d, 0x6f, 0x64,
  0x65, 0x6c, 0x2f, 0x63, 0x6f, 0x6e, 0x76, 0x32, 0x64, 0x5f, 0x31, 0x2f,
  0x42, 0x69, 0x61, 0x73, 0x41, 0x64, 0x64, 0x2f, 0x52, 0x65, 0x61, 0x64,
  0x56, 0x61, 0x72, 0x69, 0x61, 0x62, 0x6c, 0x65, 0x4f, 0x70, 0x00, 0x00,
  0x04, 0x00, 0x00, 0x00, 0x01, 0x00, 0x00, 0x00, 0x06, 0x00, 0x00, 0x00,
  0x06, 0x00, 0x00, 0x00, 0x0c, 0x00, 0x00, 0x00, 0x64, 0xfe, 0xff, 0xff,
  0x18, 0x00, 0x00, 0x00, 0x28, 0x00, 0x00, 0x00, 0x48, 0x00, 0x00, 0x00,
  0x0f, 0x00, 0x00, 0x00, 0x00, 0x00, 0x00, 0x09, 0x5c, 0x00, 0x00, 0x00,
  0x04, 0x00, 0x00, 0x00, 0xff, 0xff, 0xff, 0xff, 0x10, 0x00, 0x00, 0x00,
  0x10, 0x00, 0x00, 0x00, 0x0c, 0x00, 0x00, 0x00, 0xe4, 0xf6, 0xff, 0xff,
  0x08, 0x00, 0x00, 0x00, 0x14, 0x00, 0x00, 0x00, 0x01, 0x00, 0x00, 0x00,
  0x80, 0xff, 0xff, 0xff, 0xff, 0xff, 0xff, 0xff, 0x00, 0x00, 0x00, 0x00,
  0x01, 0x00, 0x00, 0x00, 0x04, 0xe1, 0xe3, 0x3c, 0x1b, 0x00, 0x00, 0x00,
  0x6d, 0x6f, 0x64, 0x65, 0x6c, 0x2f, 0x6d, 0x61, 0x78, 0x5f, 0x70, 0x6f,
  0x6f, 0x6c, 0x69, 0x6e, 0x67, 0x32, 0x64, 0x2f, 0x4d, 0x61, 0x78, 0x50,
  0x6f, 0x6f, 0x6c, 0x00, 0x04, 0x00, 0x00, 0x00, 0x01, 0x00, 0x00, 0x00,
  0x10, 0x00, 0x00, 0x00, 0x10, 0x00, 0x00, 0x00, 0x0c, 0x00, 0x00, 0x00,
  0xec, 0xfe, 0xff, 0xff, 0x18, 0x00, 0x00, 0x00, 0x28, 0x00, 0x00, 0x00,
  0x48, 0x00, 0x00, 0x00, 0x0e, 0x00, 0x00, 0x00, 0x00, 0x00, 0x00, 0x09,
  0xe8, 0x00, 0x00, 0x00, 0x04, 0x00, 0x00, 0x00, 0xff, 0xff, 0xff, 0xff,
  0x20, 0x00, 0x00, 0x00, 0x20, 0x00, 0x00, 0x00, 0x0c, 0x00, 0x00, 0x00,
  0x6c, 0xf7, 0xff, 0xff, 0x08, 0x00, 0x00, 0x00, 0x14, 0x00, 0x00, 0x00,
  0x01, 0x00, 0x00, 0x00, 0x80, 0xff, 0xff, 0xff, 0xff, 0xff, 0xff, 0xff,
  0x00, 0x00, 0x00, 0x00, 0x01, 0x00, 0x00, 0x00, 0x04, 0xe1, 0xe3, 0x3c,
  0xa4, 0x00, 0x00, 0x00, 0x6d, 0x6f, 0x64, 0x65, 0x6c, 0x2f, 0x61, 0x63,
  0x74, 0x69, 0x76, 0x61, 0x74, 0x69, 0x6f, 0x6e, 0x2f, 0x52, 0x65, 0x6c,
  0x75, 0x3b, 0x6d, 0x6f, 0x64, 0x65, 0x6c, 0x2f, 0x62, 0x61, 0x74, 0x63,
  0x68, 0x5f, 0x6e, 0x6f, 0x72, 0x6d, 0x61, 0x6c, 0x69, 0x7a, 0x61, 0x74,
  0x69, 0x6f, 0x6e, 0x2f, 0x46, 0x75, 0x73, 0x65, 0x64, 0x42, 0x61, 0x74,
  0x63, 0x68, 0x4e, 0x6f, 0x72, 0x6d, 0x56, 0x33, 0x3b, 0x6d, 0x6f, 0x64,
  0x65, 0x6c, 0x2f, 0x63, 0x6f, 0x6e, 0x76, 0x32, 0x64, 0x2f, 0x42, 0x69,
  0x61, 0x73, 0x41, 0x64, 0x64, 0x2f, 0x52, 0x65, 0x61, 0x64, 0x56, 0x61,
  0x72, 0x69, 0x61, 0x62, 0x6c, 0x65, 0x4f, 0x70, 0x3b, 0x6d, 0x6f, 0x64,
  0x65, 0x6c, 0x2f, 0x63, 0x6f, 0x6e, 0x76, 0x32, 0x64, 0x2f, 0x42, 0x69,
  0x61, 0x73, 0x41, 0x64, 0x64, 0x3b, 0x6d, 0x6f, 0x64, 0x65, 0x6c, 0x2f,
  0x63, 0x6f, 0x6e, 0x76, 0x32, 0x64, 0x5f, 0x31, 0x2f, 0x43, 0x6f, 0x6e,
  0x76, 0x32, 0x44, 0x3b, 0x6d, 0x6f, 0x64, 0x65, 0x6c, 0x2f, 0x63, 0x6f,
  0x6e, 0x76, 0x32, 0x64, 0x2f, 0x43, 0x6f, 0x6e, 0x76, 0x32, 0x44, 0x32,
  0x00, 0x00, 0x00, 0x00, 0x04, 0x00, 0x00, 0x00, 0x01, 0x00, 0x00, 0x00,
  0x20, 0x00, 0x00, 0x00, 0x20, 0x00, 0x00, 0x00, 0x0c, 0x00, 0x00, 0x00,
  0x14, 0x00, 0x1c, 0x00, 0x18, 0x00, 0x17, 0x00, 0x10, 0x00, 0x0c, 0x00,
  0x08, 0x00, 0x00, 0x00, 0x00, 0x00, 0x04, 0x00, 0x14, 0x00, 0x00, 0x00,
  0x18, 0x00, 0x00, 0x00, 0x28, 0x00, 0x00, 0x00, 0x44, 0x00, 0x00, 0x00,
  0x0d, 0x00, 0x00, 0x00, 0x00, 0x00, 0x00, 0x09, 0x4c, 0x00, 0x00, 0x00,
  0x04, 0x00, 0x00, 0x00, 0xff, 0xff, 0xff, 0xff, 0x60, 0x00, 0x00, 0x00,
  0x60, 0x00, 0x00, 0x00, 0x01, 0x00, 0x00, 0x00, 0x94, 0xf8, 0xff, 0xff,
  0x08, 0x00, 0x00, 0x00, 0x10, 0x00, 0x00, 0x00, 0x01, 0x00, 0x00, 0x00,
  0x80, 0xff, 0xff, 0xff, 0xff, 0xff, 0xff, 0xff, 0x01, 0x00, 0x00, 0x00,
  0xee, 0xed, 0x6d, 0x3f, 0x0c, 0x00, 0x00, 0x00, 0x74, 0x66, 0x6c, 0x2e,
  0x71, 0x75, 0x61, 0x6e, 0x74, 0x69, 0x7a, 0x65, 0x00, 0x00, 0x00, 0x00,
  0x04, 0x00, 0x00, 0x00, 0x01, 0x00, 0x00, 0x00, 0x60, 0x00, 0x00, 0x00,
  0x60, 0x00, 0x00, 0x00, 0x01, 0x00, 0x00, 0x00, 0x66, 0xf7, 0xff, 0xff,
  0x14, 0x00, 0x00, 0x00, 0x34, 0x00, 0x00, 0x00, 0x0c, 0x00, 0x00, 0x00,
  0x00, 0x00, 0x00, 0x02, 0x54, 0x00, 0x00, 0x00, 0xf4, 0xf8, 0xff, 0xff,
  0x08, 0x00, 0x00, 0x00, 0x14, 0x00, 0x00, 0x00, 0x01, 0x00, 0x00, 0x00,
  0x00, 0x00, 0x00, 0x00, 0x00, 0x00, 0x00, 0x00, 0x00, 0x00, 0x00, 0x00,
  0x01, 0x00, 0x00, 0x00, 0x4c, 0x46, 0x3c, 0x3a, 0x24, 0x00, 0x00, 0x00,
  0x6d, 0x6f, 0x64, 0x65, 0x6c, 0x2f, 0x64, 0x65, 0x6e, 0x73, 0x65, 0x5f,
  0x31, 0x2f, 0x42, 0x69, 0x61, 0x73, 0x41, 0x64, 0x64, 0x2f, 0x52, 0x65,
  0x61, 0x64, 0x56, 0x61, 0x72, 0x69, 0x61, 0x62, 0x6c, 0x65, 0x4f, 0x70,
  0x00, 0x00, 0x00, 0x00, 0x01, 0x00, 0x00, 0x00, 0x03, 0x00, 0x00, 0x00,
  0xd6, 0xf7, 0xff, 0xff, 0x14, 0x00, 0x00, 0x00, 0x30, 0x00, 0x00, 0x00,
  0x0b, 0x00, 0x00, 0x00, 0x00, 0x00, 0x00, 0x09, 0x40, 0x00, 0x00, 0x00,
  0x64, 0xf9, 0xff, 0xff, 0x08, 0x00, 0x00, 0x00, 0x10, 0x00, 0x00, 0x00,
  0x01, 0x00, 0x00, 0x00, 0x00, 0x00, 0x00, 0x00, 0x00, 0x00, 0x00, 0x00,
  0x01, 0x00, 0x00, 0x00, 0x01, 0xd0, 0x6e, 0x3c, 0x14, 0x00, 0x00, 0x00,
  0x6d, 0x6f, 0x64, 0x65, 0x6c, 0x2f, 0x64, 0x65, 0x6e, 0x73, 0x65, 0x5f,
  0x31, 0x2f, 0x4d, 0x61, 0x74, 0x4d, 0x75, 0x6c, 0x00, 0x00, 0x00, 0x00,
  0x02, 0x00, 0x00, 0x00, 0x03, 0x00, 0x00, 0x00, 0x09, 0x00, 0x00, 0x00,
  0x36, 0xf8, 0xff, 0xff, 0x14, 0x00, 0x00, 0x00, 0x30, 0x00, 0x00, 0x00,
  0x0a, 0x00, 0x00, 0x00, 0x00, 0x00, 0x00, 0x02, 0x4c, 0x00, 0x00, 0x00,
  0xc4, 0xf9, 0xff, 0xff, 0x08, 0x00, 0x00, 0x00, 0x10, 0x00, 0x00, 0x00,
  0x01, 0x00, 0x00, 0x00, 0x00, 0x00, 0x00, 0x00, 0x00, 0x00, 0x00, 0x00,
  0x01, 0x00, 0x00, 0x00, 0x99, 0x38, 0x8d, 0x39, 0x22, 0x00, 0x00, 0x00,
  0x6d, 0x6f, 0x64, 0x65, 0x6c, 0x2f, 0x64, 0x65, 0x6e, 0x73, 0x65, 0x2f,
  0x42, 0x69, 0x61, 0x73, 0x41, 0x64, 0x64, 0x2f, 0x52, 0x65, 0x61, 0x64,
  0x56, 0x61, 0x72, 0x69, 0x61, 0x62, 0x6c, 0x65, 0x4f, 0x70, 0x00, 0x00,
  0x01, 0x00, 0x00, 0x00, 0x09, 0x00, 0x00, 0x00, 0x9e, 0xf8, 0xff, 0xff,
  0x14, 0x00, 0x00, 0x00, 0x34, 0x00, 0x00, 0x00, 0x09, 0x00, 0x00, 0x00,
  0x00, 0x00, 0x00, 0x09, 0x40, 0x00, 0x00, 0x00, 0x2c, 0xfa, 0xff, 0xff,
  0x08, 0x00, 0x00, 0x00, 0x14, 0x00, 0x00, 0x00, 0x01, 0x00, 0x00, 0x00,
  0x00, 0x00, 0x00, 0x00, 0x00, 0x00, 0x00, 0x00, 0x00, 0x00, 0x00, 0x00,
  0x01, 0x00, 0x00, 0x00, 0xec, 0xd7, 0x06, 0x3c, 0x12, 0x00, 0x00, 0x00,
  0x6d, 0x6f, 0x64, 0x65, 0x6c, 0x2f, 0x64, 0x65, 0x6e, 0x73, 0x65, 0x2f,
  0x4d, 0x61, 0x74, 0x4d, 0x75, 0x6c, 0x00, 0x00, 0x02, 0x00, 0x00, 0x00,
  0x09, 0x00, 0x00, 0x00, 0x0f, 0x00, 0x00, 0x00, 0xfe, 0xf8, 0xff, 0xff,
  0x14, 0x00, 0x00, 0x00, 0xdc, 0x00, 0x00, 0x00, 0x08, 0x00, 0x00, 0x00,
  0x00, 0x00, 0x00, 0x02, 0xfc, 0x00, 0x00, 0x00, 0x8c, 0xfa, 0xff, 0xff,
  0x08, 0x00, 0x00, 0x00, 0x84, 0x00, 0x00, 0x00, 0x0f, 0x00, 0x00, 0x00,
  0x00, 0x00, 0x00, 0x00, 0x00, 0x00, 0x00, 0x00, 0x00, 0x00, 0x00, 0x00,
  0x00, 0x00, 0x00, 0x00, 0x00, 0x00, 0x00, 0x00, 0x00, 0x00, 0x00, 0x00,
  0x00, 0x00, 0x00, 0x00, 0x00, 0x00, 0x00, 0x00, 0x00, 0x00, 0x00, 0x00,
  0x00, 0x00, 0x00, 0x00, 0x00, 0x00, 0x00, 0x00, 0x00, 0x00, 0x00, 0x00,
  0x00, 0x00, 0x00, 0x00, 0x00, 0x00, 0x00, 0x00, 0x00, 0x00, 0x00, 0x00,
  0x00, 0x00, 0x00, 0x00, 0x00, 0x00, 0x00, 0x00, 0x00, 0x00, 0x00, 0x00,
  0x00, 0x00, 0x00, 0x00, 0x00, 0x00, 0x00, 0x00, 0x00, 0x00, 0x00, 0x00,
  0x00, 0x00, 0x00, 0x00, 0x00, 0x00, 0x00, 0x00, 0x00, 0x00, 0x00, 0x00,
  0x00, 0x00, 0x00, 0x00, 0x00, 0x00, 0x00, 0x00, 0x00, 0x00, 0x00, 0x00,
  0x00, 0x00, 0x00, 0x00, 0x00, 0x00, 0x00, 0x00, 0x00, 0x00, 0x00, 0x00,
  0x00, 0x00, 0x00, 0x00, 0x0f, 0x00, 0x00, 0x00, 0x56, 0xe3, 0x92, 0x38,
  0xd9, 0x64, 0xe4, 0x38, 0xf0, 0xc0, 0x10, 0x39, 0x2a, 0x74, 0xc4, 0x38,
  0xe4, 0xa1, 0x11, 0x39, 0x58, 0x18, 0xad, 0x38, 0x82, 0x88, 0x0b, 0x39,
  0x38, 0xe6, 0xc2, 0x38, 0xea, 0xda, 0x87, 0x38, 0xca, 0xcf, 0x7c, 0x38,
  0x39, 0x3e, 0xdd, 0x38, 0x58, 0x5f, 0x05, 0x39, 0x6c, 0xa6, 0xe5, 0x38,
  0x8e, 0x15, 0xb9, 0x38, 0x8a, 0x46, 0x0b, 0x39, 0x25, 0x00, 0x00, 0x00,
  0x6d, 0x6f, 0x64, 0x65, 0x6c, 0x2f, 0x63, 0x6f, 0x6e, 0x76, 0x32, 0x64,
  0x5f, 0x32, 0x2f, 0x42, 0x69, 0x61, 0x73, 0x41, 0x64, 0x64, 0x2f, 0x52,
  0x65, 0x61, 0x64, 0x56, 0x61, 0x72, 0x69, 0x61, 0x62, 0x6c, 0x65, 0x4f,
  0x70, 0x00, 0x00, 0x00, 0x01, 0x00, 0x00, 0x00, 0x0f, 0x00, 0x00, 0x00,
  0x16, 0xfa, 0xff, 0xff, 0x14, 0x00, 0x00, 0x00, 0xd8, 0x00, 0x00, 0x00,
  0x07, 0x00, 0x00, 0x00, 0x00, 0x00, 0x00, 0x09, 0xe8, 0x00, 0x00, 0x00,
  0xa4, 0xfb, 0xff, 0xff, 0x08, 0x00, 0x00, 0x00, 0x80, 0x00, 0x00, 0x00,
  0x0f, 0x00, 0x00, 0x00, 0x00, 0x00, 0x00, 0x00, 0x00, 0x00, 0x00, 0x00,
  0x00, 0x00, 0x00, 0x00, 0x00, 0x00, 0x00, 0x00, 0x00, 0x00, 0x00, 0x00,
  0x00, 0x00, 0x00, 0x00, 0x00, 0x00, 0x00, 0x00, 0x00, 0x00, 0x00, 0x00,
  0x00, 0x00, 0x00, 0x00, 0x00, 0x00, 0x00, 0x00, 0x00, 0x00, 0x00, 0x00,
  0x00, 0x00, 0x00, 0x00, 0x00, 0x00, 0x00, 0x00, 0x00, 0x00, 0x00, 0x00,
  0x00, 0x00, 0x00, 0x00, 0x00, 0x00, 0x00, 0x00, 0x00, 0x00, 0x00, 0x00,
  0x00, 0x00, 0x00, 0x00, 0x00, 0x00, 0x00, 0x00, 0x00, 0x00, 0x00, 0x00,
  0x00, 0x00, 0x00, 0x00, 0x00, 0x00, 0x00, 0x00, 0x00, 0x00, 0x00, 0x00,
  0x00, 0x00, 0x00, 0x00, 0x00, 0x00, 0x00, 0x00, 0x00, 0x00, 0x00, 0x00,
  0x00, 0x00, 0x00, 0x00, 0x00, 0x00, 0x00, 0x00, 0x00, 0x00, 0x00, 0x00,
  0x00, 0x00, 0x00, 0x00, 0x0f, 0x00, 0x00, 0x00, 0xf5, 0xa1, 0x25, 0x3b,
  0x13, 0xc5, 0x80, 0x3b, 0xd5, 0x39, 0xa3, 0x3b, 0x07, 0x86, 0x5d, 0x3b,
  0x7e, 0x37, 0xa4, 0x3b, 0x1c, 0x2f, 0x43, 0x3b, 0xdc, 0x56, 0x9d, 0x3b,
  0x4c, 0xc5, 0x5b, 0x3b, 0x1b, 0x31, 0x19, 0x3b, 0x64, 0x89, 0x0e, 0x3b,
  0xea, 0x79, 0x79, 0x3b, 0x6e, 0x64, 0x96, 0x3b, 0x61, 0x7a, 0x81, 0x3b,
  0xfd, 0xb3, 0x50, 0x3b, 0x78, 0x0c, 0x9d, 0x3b, 0x15, 0x00, 0x00, 0x00,
  0x6d, 0x6f, 0x64, 0x65, 0x6c, 0x2f, 0x63, 0x6f, 0x6e, 0x76, 0x32, 0x64,
  0x5f, 0x32, 0x2f, 0x43, 0x6f, 0x6e, 0x76, 0x32, 0x44, 0x00, 0x00, 0x00,
  0x04, 0x00, 0x00, 0x00, 0x0f, 0x00, 0x00, 0x00, 0x02, 0x00, 0x00, 0x00,
  0x02, 0x00, 0x00, 0x00, 0x0c, 0x00, 0x00, 0x00, 0x26, 0xfb, 0xff, 0xff,
  0x14, 0x00, 0x00, 0x00, 0xb4, 0x00, 0x00, 0x00, 0x06, 0x00, 0x00, 0x00,
  0x00, 0x00, 0x00, 0x02, 0xd4, 0x00, 0x00, 0x00, 0xb4, 0xfc, 0xff, 0xff,
  0x08, 0x00, 0x00, 0x00, 0x68, 0x00, 0x00, 0x00, 0x0c, 0x00, 0x00, 0x00,
  0x00, 0x00, 0x00, 0x00, 0x00, 0x00, 0x00, 0x00, 0x00, 0x00, 0x00, 0x00,
  0x00, 0x00, 0x00, 0x00, 0x00, 0x00, 0x00, 0x00, 0x00, 0x00, 0x00, 0x00,
  0x00, 0x00, 0x00, 0x00, 0x00, 0x00, 0x00, 0x00, 0x00, 0x00, 0x00, 0x00,
  0x00, 0x00, 0x00, 0x00, 0x00, 0x00, 0x00, 0x00, 0x00, 0x00, 0x00, 0x00,
  0x00, 0x00, 0x00, 0x00, 0x00, 0x00, 0x00, 0x00, 0x00, 0x00, 0x00, 0x00,
  0x00, 0x00, 0x00, 0x00, 0x00, 0x00, 0x00, 0x00, 0x00, 0x00, 0x00, 0x00,
  0x00, 0x00, 0x00, 0x00, 0x00, 0x00, 0x00, 0x00, 0x00, 0x00, 0x00, 0x00,
  0x00, 0x00, 0x00, 0x00, 0x00, 0x00, 0x00, 0x00, 0x00, 0x00, 0x00, 0x00,
  0x0c, 0x00, 0x00, 0x00, 0xac, 0xa3, 0x63, 0x38, 0x82, 0x63, 0x44, 0x38,
  0x71, 0x32, 0xa1, 0x38, 0xdc, 0x5e, 0x66, 0x38, 0x52, 0x5d, 0x4c, 0x38,
  0xa6, 0xdd, 0x3c, 0x38, 0x2c, 0x5a, 0x73, 0x38, 0x2c, 0x9a, 0x99, 0x38,
  0xc0, 0x45, 0x7b, 0x38, 0xfd, 0xac, 0x6c, 0x38, 0x73, 0x8e, 0x4e, 0x38,
  0x0c, 0x13, 0x41, 0x38, 0x25, 0x00, 0x00, 0x00, 0x6d, 0x6f, 0x64, 0x65,
  0x6c, 0x2f, 0x63, 0x6f, 0x6e, 0x76, 0x32, 0x64, 0x5f, 0x31, 0x2f, 0x42,
  0x69, 0x61, 0x73, 0x41, 0x64, 0x64, 0x2f, 0x52, 0x65, 0x61, 0x64, 0x56,
  0x61, 0x72, 0x69, 0x61, 0x62, 0x6c, 0x65, 0x4f, 0x70, 0x00, 0x00, 0x00,
  0x01, 0x00, 0x00, 0x00, 0x0c, 0x00, 0x00, 0x00, 0x16, 0xfc, 0xff, 0xff,
  0x14, 0x00, 0x00, 0x00, 0xb8, 0x00, 0x00, 0x00, 0x05, 0x00, 0x00, 0x00,
  0x00, 0x00, 0x00, 0x09, 0xc8, 0x00, 0x00, 0x00, 0xa4, 0xfd, 0xff, 0xff,
  0x08, 0x00, 0x00, 0x00, 0x6c, 0x00, 0x00, 0x00, 0x0c, 0x00, 0x00, 0x00,
  0x00, 0x00, 0x00, 0x00, 0x00, 0x00, 0x00, 0x00, 0x00, 0x00, 0x00, 0x00,
  0x00, 0x00, 0x00, 0x00, 0x00, 0x00, 0x00, 0x00, 0x00, 0x00, 0x00, 0x00,
  0x00, 0x00, 0x00, 0x00, 0x00, 0x00, 0x00, 0x00, 0x00, 0x00, 0x00, 0x00,
  0x00, 0x00, 0x00, 0x00, 0x00, 0x00, 0x00, 0x00, 0x00, 0x00, 0x00, 0x00,
  0x00, 0x00, 0x00, 0x00, 0x00, 0x00, 0x00, 0x00, 0x00, 0x00, 0x00, 0x00,
  0x00, 0x00, 0x00, 0x00, 0x00, 0x00, 0x00, 0x00, 0x00, 0x00, 0x00, 0x00,
  0x00, 0x00, 0x00, 0x00, 0x00, 0x00, 0x00, 0x00, 0x00, 0x00, 0x00, 0x00,
  0x00, 0x00, 0x00, 0x00, 0x00, 0x00, 0x00, 0x00, 0x00, 0x00, 0x00, 0x00,
  0x00, 0x00, 0x00, 0x00, 0x0c, 0x00, 0x00, 0x00, 0x16, 0xbb, 0xff, 0x3a,
  0xad, 0x9f, 0xdc, 0x3a, 0xdc, 0x16, 0x35, 0x3b, 0x47, 0x66, 0x01, 0x3b,
  0x74, 0x95, 0xe5, 0x3a, 0x28, 0x2c, 0xd4, 0x3a, 0xfd, 0xb0, 0x08, 0x3b,
  0xa9, 0x8e, 0x2c, 0x3b, 0xe2, 0x23, 0x0d, 0x3b, 0xf0, 0xf0, 0x04, 0x3b,
  0xd4, 0x0b, 0xe8, 0x3a, 0x83, 0xe6, 0xd8, 0x3a, 0x15, 0x00, 0x00, 0x00,
  0x6d, 0x6f, 0x64, 0x65, 0x6c, 0x2f, 0x63, 0x6f, 0x6e, 0x76, 0x32, 0x64,
  0x5f, 0x31, 0x2f, 0x43, 0x6f, 0x6e, 0x76, 0x32, 0x44, 0x00, 0x00, 0x00,
  0x04, 0x00, 0x00, 0x00, 0x0c, 0x00, 0x00, 0x00, 0x05, 0x00, 0x00, 0x00,
  0x05, 0x00, 0x00, 0x00, 0x0c, 0x00, 0x00, 0x00, 0x06, 0xfd, 0xff, 0xff,
  0x14, 0x00, 0x00, 0x00, 0xb4, 0x00, 0x00, 0x00, 0x04, 0x00, 0x00, 0x00,
  0x00, 0x00, 0x00, 0x02, 0x50, 0x01, 0x00, 0x00, 0x94, 0xfe, 0xff, 0xff,
  0x08, 0x00, 0x00, 0x00, 0x68, 0x00, 0x00, 0x00, 0x0c, 0x00, 0x00, 0x00,
  0x00, 0x00, 0x00, 0x00, 0x00, 0x00, 0x00, 0x00, 0x00, 0x00, 0x00, 0x00,
  0x00, 0x00, 0x00, 0x00, 0x00, 0x00, 0x00, 0x00, 0x00, 0x00, 0x00, 0x00,
  0x00, 0x00, 0x00, 0x00, 0x00, 0x00, 0x00, 0x00, 0x00, 0x00, 0x00, 0x00,
  0x00, 0x00, 0x00, 0x00, 0x00, 0x00, 0x00, 0x00, 0x00, 0x00, 0x00, 0x00,
  0x00, 0x00, 0x00, 0x00, 0x00, 0x00, 0x00, 0x00, 0x00, 0x00, 0x00, 0x00,
  0x00, 0x00, 0x00, 0x00, 0x00, 0x00, 0x00, 0x00, 0x00, 0x00, 0x00, 0x00,
  0x00, 0x00, 0x00, 0x00, 0x00, 0x00, 0x00, 0x00, 0x00, 0x00, 0x00, 0x00,
  0x00, 0x00, 0x00, 0x00, 0x00, 0x00, 0x00, 0x00, 0x00, 0x00, 0x00, 0x00,
  0x0c, 0x00, 0x00, 0x00, 0x39, 0xea, 0x7f, 0x38, 0x01, 0x96, 0xa7, 0x38,
  0x90, 0x53, 0x32, 0x38, 0xf4, 0x08, 0xb1, 0x38, 0xd2, 0x62, 0x84, 0x38,
  0xb6, 0xdc, 0x9a, 0x38, 0xd6, 0x02, 0x40, 0x38, 0x0b, 0xd6, 0x68, 0x38,
  0x66, 0x0f, 0x82, 0x38, 0x8f, 0xbe, 0x77, 0x38, 0xc9, 0x1c, 0x98, 0x38,
  0xec, 0xf3, 0x90, 0x38, 0xa3, 0x00, 0x00, 0x00, 0x6d, 0x6f, 0x64, 0x65,
  0x6c, 0x2f, 0x61, 0x63, 0x74, 0x69, 0x76, 0x61, 0x74, 0x69, 0x6f, 0x6e,
  0x2f, 0x52, 0x65, 0x6c, 0x75, 0x3b, 0x6d, 0x6f, 0x64, 0x65, 0x6c, 0x2f,
  0x62, 0x61, 0x74, 0x63, 0x68, 0x5f, 0x6e, 0x6f, 0x72, 0x6d, 0x61, 0x6c,
  0x69, 0x7a, 0x61, 0x74, 0x69, 0x6f, 0x6e, 0x2f, 0x46, 0x75, 0x73, 0x65,
  0x64, 0x42, 0x61, 0x74, 0x63, 0x68, 0x4e, 0x6f, 0x72, 0x6d, 0x56, 0x33,
  0x3b, 0x6d, 0x6f, 0x64, 0x65, 0x6c, 0x2f, 0x63, 0x6f, 0x6e, 0x76, 0x32,
  0x64, 0x2f, 0x42, 0x69, 0x61, 0x73, 0x41, 0x64, 0x64, 0x2f, 0x52, 0x65,
  0x61, 0x64, 0x56, 0x61, 0x72, 0x69, 0x61, 0x62, 0x6c, 0x65, 0x4f, 0x70,
  0x3b, 0x6d, 0x6f, 0x64, 0x65, 0x6c, 0x2f, 0x63, 0x6f, 0x6e, 0x76, 0x32,
  0x64, 0x2f, 0x42, 0x69, 0x61, 0x73, 0x41, 0x64, 0x64, 0x3b, 0x6d, 0x6f,
  0x64, 0x65, 0x6c, 0x2f, 0x63, 0x6f, 0x6e, 0x76, 0x32, 0x64, 0x5f, 0x31,
  0x2f, 0x43, 0x6f, 0x6e, 0x76, 0x32, 0x44, 0x3b, 0x6d, 0x6f, 0x64, 0x65,
  0x6c, 0x2f, 0x63, 0x6f, 0x6e, 0x76, 0x32, 0x64, 0x2f, 0x43, 0x6f, 0x6e,
  0x76, 0x32, 0x44, 0x00, 0x01, 0x00, 0x00, 0x00, 0x0c, 0x00, 0x00, 0x00,
  0x72, 0xfe, 0xff, 0xff, 0x20, 0x00, 0x00, 0x00, 0xc4, 0x00, 0x00, 0x00,
  0x03, 0x00, 0x00, 0x00, 0x00, 0x00, 0x00, 0x09, 0x64, 0x01, 0x00, 0x00,
  0x0c, 0x00, 0x0c, 0x00, 0x00, 0x00, 0x00, 0x00, 0x08, 0x00, 0x04, 0x00,
  0x0c, 0x00, 0x00, 0x00, 0x08, 0x00, 0x00, 0x00, 0x6c, 0x00, 0x00, 0x00,
  0x0c, 0x00, 0x00, 0x00, 0x00, 0x00, 0x00, 0x00, 0x00, 0x00, 0x00, 0x00,
  0x00, 0x00, 0x00, 0x00, 0x00, 0x00, 0x00, 0x00, 0x00, 0x00, 0x00, 0x00,
  0x00, 0x00, 0x00, 0x00, 0x00, 0x00, 0x00, 0x00, 0x00, 0x00, 0x00, 0x00,
  0x00, 0x00, 0x00, 0x00, 0x00, 0x00, 0x00, 0x00, 0x00, 0x00, 0x00, 0x00,
  0x00, 0x00, 0x00, 0x00, 0x00, 0x00, 0x00, 0x00, 0x00, 0x00, 0x00, 0x00,
  0x00, 0x00, 0x00, 0x00, 0x00, 0x00, 0x00, 0x00, 0x00, 0x00, 0x00, 0x00,
  0x00, 0x00, 0x00, 0x00, 0x00, 0x00, 0x00, 0x00, 0x00, 0x00, 0x00, 0x00,
  0x00, 0x00, 0x00, 0x00, 0x00, 0x00, 0x00, 0x00, 0x00, 0x00, 0x00, 0x00,
  0x00, 0x00, 0x00, 0x00, 0x00, 0x00, 0x00, 0x00, 0x0c, 0x00, 0x00, 0x00,
  0xfe, 0xac, 0x89, 0x38, 0x62, 0x50, 0xb4, 0x38, 0xc5, 0xde, 0x3f, 0x38,
  0x0d, 0x7b, 0xbe, 0x38, 0xcf, 0x70, 0x8e, 0x38, 0xb4, 0x9f, 0xa6, 0x38,
  0x1d, 0x98, 0x4e, 0x38, 0x15, 0x85, 0x7a, 0x38, 0x2a, 0xf0, 0x8b, 0x38,
  0xbb, 0x47, 0x85, 0x38, 0x50, 0xaa, 0xa3, 0x38, 0x3f, 0xf6, 0x9b, 0x38,
  0xa4, 0x00, 0x00, 0x00, 0x6d, 0x6f, 0x64, 0x65, 0x6c, 0x2f, 0x61, 0x63,
  0x74, 0x69, 0x76, 0x61, 0x74, 0x69, 0x6f, 0x6e, 0x2f, 0x52, 0x65, 0x6c,
  0x75, 0x3b, 0x6d, 0x6f, 0x64, 0x65, 0x6c, 0x2f, 0x62, 0x61, 0x74, 0x63,
  0x68, 0x5f, 0x6e, 0x6f, 0x72, 0x6d, 0x61, 0x6c, 0x69, 0x7a, 0x61, 0x74,
  0x69, 0x6f, 0x6e, 0x2f, 0x46, 0x75, 0x73, 0x65, 0x64, 0x42, 0x61, 0x74,
  0x63, 0x68, 0x4e, 0x6f, 0x72, 0x6d, 0x56, 0x33, 0x3b, 0x6d, 0x6f, 0x64,
  0x65, 0x6c, 0x2f, 0x63, 0x6f, 0x6e, 0x76, 0x32, 0x64, 0x2f, 0x42, 0x69,
  0x61, 0x73, 0x41, 0x64, 0x64, 0x2f, 0x52, 0x65, 0x61, 0x64, 0x56, 0x61,
  0x72, 0x69, 0x61, 0x62, 0x6c, 0x65, 0x4f, 0x70, 0x3b, 0x6d, 0x6f, 0x64,
  0x65, 0x6c, 0x2f, 0x63, 0x6f, 0x6e, 0x76, 0x32, 0x64, 0x2f, 0x42, 0x69,
  0x61, 0x73, 0x41, 0x64, 0x64, 0x3b, 0x6d, 0x6f, 0x64, 0x65, 0x6c, 0x2f,
  0x63, 0x6f, 0x6e, 0x76, 0x32, 0x64, 0x5f, 0x31, 0x2f, 0x43, 0x6f, 0x6e,
  0x76, 0x32, 0x44, 0x3b, 0x6d, 0x6f, 0x64, 0x65, 0x6c, 0x2f, 0x63, 0x6f,
  0x6e, 0x76, 0x32, 0x64, 0x2f, 0x43, 0x6f, 0x6e, 0x76, 0x32, 0x44, 0x31,
  0x00, 0x00, 0x00, 0x00, 0x04, 0x00, 0x00, 0x00, 0x0c, 0x00, 0x00, 0x00,
  0x05, 0x00, 0x00, 0x00, 0x05, 0x00, 0x00, 0x00, 0x01, 0x00, 0x00, 0x00,
  0x00, 0x00, 0x0e, 0x00, 0x18, 0x00, 0x14, 0x00, 0x13, 0x00, 0x0c, 0x00,
  0x08, 0x00, 0x04, 0x00, 0x0e, 0x00, 0x00, 0x00, 0x14, 0x00, 0x00, 0x00,
  0x14, 0x00, 0x00, 0x00, 0x02, 0x00, 0x00, 0x00, 0x00, 0x00, 0x00, 0x02,
  0x20, 0x00, 0x00, 0x00, 0x9c, 0xff, 0xff, 0xff, 0x13, 0x00, 0x00, 0x00,
  0x6d, 0x6f, 0x64, 0x65, 0x6c, 0x2f, 0x66, 0x6c, 0x61, 0x74, 0x74, 0x65,
  0x6e, 0x2f, 0x43, 0x6f, 0x6e, 0x73, 0x74, 0x00, 0x01, 0x00, 0x00, 0x00,
  0x02, 0x00, 0x00, 0x00, 0x14, 0x00, 0x18, 0x00, 0x14, 0x00, 0x00, 0x00,
  0x10, 0x00, 0x0c, 0x00, 0x08, 0x00, 0x00, 0x00, 0x00, 0x00, 0x04, 0x00,
  0x14, 0x00, 0x00, 0x00, 0x14, 0x00, 0x00, 0x00, 0x28, 0x00, 0x00, 0x00,
  0x28, 0x00, 0x00, 0x00, 0x01, 0x00, 0x00, 0x00, 0x40, 0x00, 0x00, 0x00,
  0x04, 0x00, 0x00, 0x00, 0xff, 0xff, 0xff, 0xff, 0x60, 0x00, 0x00, 0x00,
  0x60, 0x00, 0x00, 0x00, 0x01, 0x00, 0x00, 0x00, 0x04, 0x00, 0x04, 0x00,
  0x04, 0x00, 0x00, 0x00, 0x19, 0x00, 0x00, 0x00, 0x73, 0x65, 0x72, 0x76,
  0x69, 0x6e, 0x67, 0x5f, 0x64, 0x65, 0x66, 0x61, 0x75, 0x6c, 0x74, 0x5f,
  0x69, 0x6e, 0x70, 0x75, 0x74, 0x5f, 0x31, 0x3a, 0x30, 0x00, 0x00, 0x00,
  0x04, 0x00, 0x00, 0x00, 0x01, 0x00, 0x00, 0x00, 0x60, 0x00, 0x00, 0x00,
  0x60, 0x00, 0x00, 0x00, 0x01, 0x00, 0x00, 0x00, 0x07, 0x00, 0x00, 0x00,
  0x90, 0x00, 0x00, 0x00, 0x70, 0x00, 0x00, 0x00, 0x50, 0x00, 0x00, 0x00,
  0x40, 0x00, 0x00, 0x00, 0x2c, 0x00, 0x00, 0x00, 0x18, 0x00, 0x00, 0x00,
  0x04, 0x00, 0x00, 0x00, 0xb4, 0xff, 0xff, 0xff, 0x06, 0x00, 0x00, 0x00,
  0x02, 0x00, 0x00, 0x00, 0x00, 0x00, 0x00, 0x06, 0xc4, 0xff, 0xff, 0xff,
  0x19, 0x00, 0x00, 0x00, 0x02, 0x00, 0x00, 0x00, 0x00, 0x00, 0x00, 0x19,
  0xd4, 0xff, 0xff, 0xff, 0x09, 0x00, 0x00, 0x00, 0x04, 0x00, 0x00, 0x00,
  0x00, 0x00, 0x00, 0x09, 0xc8, 0xff, 0xff, 0xff, 0x16, 0x00, 0x00, 0x00,
  0x00, 0x00, 0x00, 0x16, 0xf0, 0xff, 0xff, 0xff, 0x11, 0x00, 0x00, 0x00,
  0x02, 0x00, 0x00, 0x00, 0x00, 0x00, 0x00, 0x11, 0x0c, 0x00, 0x10, 0x00,
  0x0f, 0x00, 0x00, 0x00, 0x08, 0x00, 0x04, 0x00, 0x0c, 0x00, 0x00, 0x00,
  0x03, 0x00, 0x00, 0x00, 0x03, 0x00, 0x00, 0x00, 0x00, 0x00, 0x00, 0x03,
  0x0c, 0x00, 0x0c, 0x00, 0x0b, 0x00, 0x00, 0x00, 0x00, 0x00, 0x04, 0x00,
  0x0c, 0x00, 0x00, 0x00, 0x72, 0x00, 0x00, 0x00, 0x00, 0x00, 0x00, 0x72
};